{
  "version": "1.0",
  "truncation": null,
  "padding": null,
  "added_tokens": [
    {
      "id": 0,
      "content": "[PAD]",
      "single_word": false,
      "lstrip": false,
      "rstrip": false,
      "normalized": false,
      "special": true
    },
    {
      "id": 1,
      "content": "[UNK]",
      "single_word": false,
      "lstrip": false,
      "rstrip": false,
      "normalized": false,
      "special": true
    },
    {
      "id": 2,
      "content": "[CLS]",
      "single_word": false,
      "lstrip": false,
      "rstrip": false,
      "normalized": false,
      "special": true
    },
    {
      "id": 3,
      "content": "[SEP]",
      "single_word": false,
      "lstrip": false,
      "rstrip": false,
      "normalized": false,
      "special": true
    },
    {
      "id": 4,
      "content": "[MASK]",
      "single_word": false,
      "lstrip": false,
      "rstrip": false,
      "normalized": false,
      "special": true
    }
  ],
  "normalizer": {
    "type": "NFKC"
  },
  "pre_tokenizer": {
    "type": "Whitespace"
  },
  "post_processor": {
    "type": "TemplateProcessing",
    "single": [
      {
        "SpecialToken": {
          "id": "[CLS]",
          "type_id": 0
        }
      },
      {
        "Sequence": {
          "id": "A",
          "type_id": 0
        }
      },
      {
        "SpecialToken": {
          "id": "[SEP]",
          "type_id": 0
        }
      }
    ],
    "pair": [
      {
        "SpecialToken": {
          "id": "[CLS]",
          "type_id": 0
        }
      },
      {
        "Sequence": {
          "id": "A",
          "type_id": 0
        }
      },
      {
        "SpecialToken": {
          "id": "[SEP]",
          "type_id": 0
        }
      },
      {
        "Sequence": {
          "id": "B",
          "type_id": 1
        }
      },
      {
        "SpecialToken": {
          "id": "[SEP]",
          "type_id": 1
        }
      }
    ],
    "special_tokens": {
      "[CLS]": {
        "id": "[CLS]",
        "ids": [
          2
        ],
        "tokens": [
          "[CLS]"
        ]
      },
      "[SEP]": {
        "id": "[SEP]",
        "ids": [
          3
        ],
        "tokens": [
          "[SEP]"
        ]
      }
    }
  },
  "decoder": null,
  "model": {
    "type": "Unigram",
    "unk_id": null,
    "vocab": [
      [
        "[PAD]",
        0.0
      ],
      [
        "[UNK]",
        0.0
      ],
      [
        "[CLS]",
        0.0
      ],
      [
        "[SEP]",
        0.0
      ],
      [
        "[MASK]",
        0.0
      ],
      [
        ":",
        -2.5565934230898737
      ],
      [
        "s",
        -3.2758034679087746
      ],
      [
        "_",
        -3.364616417276407
      ],
      [
        "the",
        -3.449724267048122
      ],
      [
        "t",
        -3.625558508809698
      ],
      [
        "o",
        -3.6397553723193603
      ],
      [
        "-",
        -3.72813362924631
      ],
      [
        ".",
        -3.729992125376418
      ],
      [
        ",",
        -3.925124183057008
      ],
      [
        "model",
        -3.9295428751528902
      ],
      [
        "'",
        -3.9456055394963894
      ],
      [
        "ing",
        -4.079313138208745
      ],
      [
        "type",
        -4.09176787879435
      ],
      [
        "name",
        -4.095146643206753
      ],
      [
        "prompt",
        -4.102759846350152
      ],
      [
        "shared",
        -4.103265512627793
      ],
      [
        "context",
        -4.103541891757464
      ],
      [
        "purpose",
        -4.103899910187847
      ],
      [
        "problem",
        -4.146943814755211
      ],
      [
        "a",
        -4.150152007111524
      ],
      [
        "n",
        -4.252115892380335
      ],
      [
        "and",
        -4.465950013847143
      ],
      [
        "solution",
        -4.470599993350428
      ],
      [
        "A",
        -4.516136782106003
      ],
      [
        "LLM",
        -4.625459181270079
      ],
      [
        "e",
        -4.691038300737677
      ],
      [
        "if",
        -4.741223223712911
      ],
      [
        "step",
        -4.775050634938955
      ],
      [
        "node",
        -4.783923813113432
      ],
      [
        "verified",
        -4.824540596491357
      ],
      [
        "]",
        -4.881264818422773
      ],
      [
        "ext",
        -4.889116604557131
      ],
      [
        "condition",
        -4.901410129349646
      ],
      [
        "llow",
        -4.906530649064678
      ],
      [
        "acces",
        -4.909277178791642
      ],
      [
        ":[",
        -4.943459477313949
      ],
      [
        "ed",
        -4.97121623466631
      ],
      [
        "al",
        -4.995221956908335
      ],
      [
        "f",
        -5.032687419776371
      ],
      [
        "mathematic",
        -5.047181924448873
      ],
      [
        "start",
        -5.071418097133147
      ],
      [
        "d",
        -5.074888434763542
      ],
      [
        "for",
        -5.1353913396091695
      ],
      [
        "end",
        -5.183958331584629
      ],
      [
        "ly",
        -5.187101476172792
      ],
      [
        "g",
        -5.203701801237113
      ],
      [
        "is",
        -5.229627529301904
      ],
      [
        "pt",
        -5.26410777893091
      ],
      [
        "bo",
        -5.307382900227939
      ],
      [
        "3",
        -5.314752705908585
      ],
      [
        "I",
        -5.320446285138235
      ],
      [
        "or",
        -5.334679018728252
      ],
      [
        "5",
        -5.335705482139415
      ],
      [
        "tur",
        -5.358459513482035
      ],
      [
        "solv",
        -5.466275089528288
      ],
      [
        "To",
        -5.520259359111138
      ],
      [
        "The",
        -5.544617631923035
      ],
      [
        "ure",
        -5.568515143256986
      ],
      [
        "z",
        -5.56885538208261
      ],
      [
        "analysis",
        -5.59562085208292
      ],
      [
        "refinement",
        -5.636510808651369
      ],
      [
        "{",
        -5.684381463585648
      ],
      [
        "i",
        -5.694667177101275
      ],
      [
        "}'",
        -5.733001507798551
      ],
      [
        "further",
        -5.792765201329711
      ],
      [
        "r",
        -5.793310002274463
      ],
      [
        "by",
        -5.803856012504255
      ],
      [
        "process",
        -5.82095969462131
      ],
      [
        "need",
        -5.857215020256342
      ],
      [
        "problems",
        -5.897035752259914
      ],
      [
        "solve",
        -5.914002876829342
      ],
      [
        "in",
        -5.936278949445496
      ],
      [
        "b",
        -5.982595004164905
      ],
      [
        "with",
        -6.031908912878334
      ],
      [
        "Solver",
        -6.09577123361762
      ],
      [
        "his",
        -6.114274483082765
      ],
      [
        "y",
        -6.24438141165113
      ],
      [
        "Thi",
        -6.267197454765036
      ],
      [
        "direct",
        -6.32216524418536
      ],
      [
        "final",
        -6.325696827446805
      ],
      [
        "In",
        -6.3991420648503485
      ],
      [
        "solutions",
        -6.401771766801607
      ],
      [
        "initial",
        -6.408517249371701
      ],
      [
        "refine",
        -6.450417509581044
      ],
      [
        "work",
        -6.481321567580064
      ],
      [
        "m",
        -6.497043035401558
      ],
      [
        "design",
        -6.501111789885413
      ],
      [
        "accuracy",
        -6.508465575305316
      ],
      [
        "found",
        -6.525625051461283
      ],
      [
        "through",
        -6.550614760586455
      ],
      [
        "rom",
        -6.552296588026763
      ],
      [
        "Math",
        -6.561449585845197
      ],
      [
        "an",
        -6.561663424090441
      ],
      [
        "th",
        -6.592902777162545
      ],
      [
        "complex",
        -6.60489965524822
      ],
      [
        "ensur",
        -6.641139671165754
      ],
      [
        "u",
        -6.644632669813173
      ],
      [
        "ther",
        -6.65127061026108
      ],
      [
        "role",
        -6.677889179253899
      ],
      [
        "output",
        -6.681820003052722
      ],
      [
        "E",
        -6.682019855632488
      ],
      [
        "verification",
        -6.68480938530531
      ],
      [
        "p",
        -6.702052180766843
      ],
      [
        "LLM1",
        -6.753679577362393
      ],
      [
        "are",
        -6.781537316040261
      ],
      [
        "ach",
        -6.81190758534465
      ],
      [
        "provide",
        -6.850337506590522
      ],
      [
        "comprehensive",
        -6.857275378499032
      ],
      [
        "base",
        -6.868190922001873
      ],
      [
        "detailed",
        -6.887362230806749
      ],
      [
        "each",
        -6.917003059230134
      ],
      [
        "analyze",
        -6.922750876190099
      ],
      [
        "solved",
        -6.94659038339649
      ],
      [
        "refined",
        -6.958863037834467
      ],
      [
        "required",
        -6.9689258867304105
      ],
      [
        "LLM2",
        -6.98172391568743
      ],
      [
        "correct",
        -7.000886304076522
      ],
      [
        "ch",
        -7.002228116709574
      ],
      [
        "ensure",
        -7.002752790632969
      ],
      [
        "ness",
        -7.005931697735084
      ],
      [
        "approach",
        -7.034386572700222
      ],
      [
        "l",
        -7.048884011046731
      ],
      [
        "whi",
        -7.05734156266413
      ],
      [
        "specialized",
        -7.08876770248936
      ],
      [
        "efor",
        -7.098414690672656
      ],
      [
        "advanced",
        -7.134938956055612
      ],
      [
        "iterative",
        -7.152466282764789
      ],
      [
        "Verification",
        -7.156715546939919
      ],
      [
        "initiate",
        -7.175522935823304
      ],
      [
        "more",
        -7.19374747139877
      ],
      [
        "validation",
        -7.214408086348589
      ],
      [
        "attempt",
        -7.225887144359713
      ],
      [
        "tackle",
        -7.234337106050643
      ],
      [
        "Solution",
        -7.260973796161501
      ],
      [
        "specific",
        -7.26777704179159
      ],
      [
        "ary",
        -7.270353312086912
      ],
      [
        "insight",
        -7.272696110794607
      ],
      [
        "follow",
        -7.273975517013311
      ],
      [
        "necess",
        -7.287774220907311
      ],
      [
        "ies",
        -7.290186883311615
      ],
      [
        "int",
        -7.292819008166261
      ],
      [
        ")",
        -7.301036527289436
      ],
      [
        "4",
        -7.307043501090154
      ],
      [
        "(",
        -7.3217166608909
      ],
      [
        "evaluate",
        -7.3302021357034075
      ],
      [
        "nterim",
        -7.336282349051983
      ],
      [
        "verify",
        -7.339408070387104
      ],
      [
        "LLM3",
        -7.347239364280024
      ],
      [
        "Check",
        -7.355221029530853
      ],
      [
        "interpret",
        -7.366165801773701
      ],
      [
        "effective",
        -7.375188554339472
      ],
      [
        "check",
        -7.377205112392524
      ],
      [
        "graph",
        -7.384933976857284
      ],
      [
        "chain",
        -7.4094062914987715
      ],
      [
        "w",
        -7.413913845737925
      ],
      [
        "thought",
        -7.42876131100674
      ],
      [
        "depth",
        -7.446653273682462
      ],
      [
        "statement",
        -7.464876407662008
      ],
      [
        "its",
        -7.465561877846669
      ],
      [
        "system",
        -7.473022588997717
      ],
      [
        "task",
        -7.4868488930531365
      ],
      [
        "deep",
        -7.496353546679054
      ],
      [
        "collaborative",
        -7.508379678763166
      ],
      [
        "deeper",
        -7.511458998242748
      ],
      [
        "feedback",
        -7.520453377587123
      ],
      [
        "confirm",
        -7.523410937803763
      ],
      [
        "MathSolver",
        -7.533252596739141
      ],
      [
        "requires",
        -7.54609492404734
      ],
      [
        "review",
        -7.562870566064819
      ],
      [
        "you",
        -7.568692348938555
      ],
      [
        "alternative",
        -7.579322439189181
      ],
      [
        "has",
        -7.579467521267784
      ],
      [
        "handle",
        -7.582239323438446
      ],
      [
        "ecision",
        -7.583415167382125
      ],
      [
        "structure",
        -7.5945490379771705
      ],
      [
        "down",
        -7.605516249412621
      ],
      [
        "Verifier",
        -7.609633243634836
      ],
      [
        "determine",
        -7.611684640469688
      ],
      [
        "athSolverLLM",
        -7.613252816291564
      ],
      [
        "stage",
        -7.619542711678413
      ],
      [
        "You",
        -7.622817319904407
      ],
      [
        "pass",
        -7.624044509005932
      ],
      [
        "your",
        -7.630951488558786
      ],
      [
        "additional",
        -7.633068646650703
      ],
      [
        "c",
        -7.640552242423911
      ],
      [
        "clari",
        -7.641061632950853
      ],
      [
        "processe",
        -7.653735023142202
      ],
      [
        "Problem",
        -7.680868143568481
      ],
      [
        "part",
        -7.681339414593365
      ],
      [
        "[",
        -7.690293008229921
      ],
      [
        "break",
        -7.693952149917603
      ],
      [
        "re",
        -7.721517050011547
      ],
      [
        "begin",
        -7.721590850991957
      ],
      [
        "thorough",
        -7.736886571246935
      ],
      [
        "solver",
        -7.742146757841157
      ],
      [
        "method",
        -7.753348022424093
      ],
      [
        "computation",
        -7.7533976407530325
      ],
      [
        "back",
        -7.7543498485358535
      ],
      [
        "math_solver",
        -7.76404591080475
      ],
      [
        "easoning",
        -7.776438402431121
      ],
      [
        "completeness",
        -7.785140577803167
      ],
      [
        "validate",
        -7.787232089318296
      ],
      [
        "identify",
        -7.795553226951937
      ],
      [
        "Depend",
        -7.798250495182459
      ],
      [
        "present",
        -7.799255513251511
      ],
      [
        "resolution",
        -7.809279343482673
      ],
      [
        "Start",
        -7.813217611303719
      ],
      [
        "give",
        -7.8243436548616865
      ],
      [
        "robust",
        -7.841044612408914
      ],
      [
        "analytical",
        -7.844233354103879
      ],
      [
        "Analysis",
        -7.855616982498525
      ],
      [
        "component",
        -7.871061205176208
      ],
      [
        "loop",
        -7.8739784918223155
      ],
      [
        "perform",
        -7.876887441175436
      ],
      [
        "Use",
        -7.884397642529076
      ],
      [
        "finalize",
        -7.890139121509774
      ],
      [
        "complexity",
        -7.891406843310997
      ],
      [
        "decision",
        -7.8966223296523985
      ],
      [
        "potential",
        -7.902065684852155
      ],
      [
        "clear",
        -7.90365160577626
      ],
      [
        "address",
        -7.909417143017154
      ],
      [
        "evaluation",
        -7.912528176667488
      ],
      [
        "play",
        -7.930564899972034
      ],
      [
        "identifie",
        -7.9430202156980725
      ],
      [
        "enhanced",
        -7.943576842971879
      ],
      [
        "challenge",
        -7.945486634922995
      ],
      [
        "determin",
        -7.979788218456373
      ],
      [
        "Refinement",
        -7.985034564250873
      ],
      [
        "derive",
        -7.998525996346308
      ],
      [
        "efficient",
        -8.026634502301267
      ],
      [
        "sub",
        -8.034799320441195
      ],
      [
        "ill",
        -8.044080760466805
      ],
      [
        "presente",
        -8.044507507697404
      ],
      [
        "conclude",
        -8.05339474768018
      ],
      [
        "drive",
        -8.056320660370918
      ],
      [
        "ation",
        -8.061696584732546
      ],
      [
        "critical",
        -8.066160137302411
      ],
      [
        "aspect",
        -8.071482435930866
      ],
      [
        "able",
        -8.071607964721322
      ],
      [
        "possibl",
        -8.082113741080875
      ],
      [
        "parent",
        -8.087528433503717
      ],
      [
        "Advanced",
        -8.08952420170495
      ],
      [
        "dynamical",
        -8.091530623959304
      ],
      [
        "reason",
        -8.097635534779842
      ],
      [
        "toward",
        -8.09838874470286
      ],
      [
        "accurate",
        -8.102202803636755
      ],
      [
        "LLM4",
        -8.10697605824118
      ],
      [
        "1",
        -8.107791794187726
      ],
      [
        "aim",
        -8.122983362020726
      ],
      [
        "S",
        -8.12904748280456
      ],
      [
        "resolve",
        -8.134297854592283
      ],
      [
        "where",
        -8.136591501435568
      ],
      [
        "2",
        -8.148819584574795
      ],
      [
        "logical",
        -8.169426661481783
      ],
      [
        "rigorous",
        -8.178069913385778
      ],
      [
        "compris",
        -8.185980540709245
      ],
      [
        "simple",
        -8.191031694983826
      ],
      [
        "integrat",
        -8.19116229701114
      ],
      [
        "crucial",
        -8.19196839680731
      ],
      [
        "answer",
        -8.206101169925265
      ],
      [
        "Final",
        -8.215394852846744
      ],
      [
        "Initial",
        -8.21554591497286
      ],
      [
        "Validator",
        -8.216285696135007
      ],
      [
        "refin",
        -8.21856386666223
      ],
      [
        "successfully",
        -8.225953316739828
      ],
      [
        "decide",
        -8.236616447491826
      ],
      [
        "dissect",
        -8.239009451921557
      ],
      [
        "conclusion",
        -8.251780014649155
      ],
      [
        "sequential",
        -8.268933211961073
      ],
      [
        "interim_check",
        -8.268934244630762
      ],
      [
        "calculation",
        -8.277246620159683
      ],
      [
        "enhance",
        -8.280763251858925
      ],
      [
        "needs",
        -8.284055643617016
      ],
      [
        "move",
        -8.286666792100696
      ],
      [
        "technique",
        -8.288580689743469
      ],
      [
        "progress",
        -8.290679224184686
      ],
      [
        "clarification",
        -8.308222738783318
      ],
      [
        "path",
        -8.314880308098708
      ],
      [
        "our",
        -8.320262281084617
      ],
      [
        "requir",
        -8.333561659331252
      ],
      [
        "optimized",
        -8.33550961247024
      ],
      [
        "conclud",
        -8.341192889081697
      ],
      [
        "contribute",
        -8.343881430401158
      ],
      [
        "can",
        -8.346450673612857
      ],
      [
        "iteration",
        -8.347485063850828
      ],
      [
        "input",
        -8.359460521776096
      ],
      [
        "meticulous",
        -8.361756149926967
      ],
      [
        "Enhanced",
        -8.364605637060297
      ],
      [
        "unique",
        -8.380918405382815
      ],
      [
        "all",
        -8.386612778521108
      ],
      [
        "confirmed",
        -8.388019873356193
      ],
      [
        "reli",
        -8.398545241302964
      ],
      [
        "issue",
        -8.416727291076505
      ],
      [
        "straightforward",
        -8.427957515740601
      ],
      [
        "arsing",
        -8.427965485402808
      ],
      [
        "multi",
        -8.42951822012116
      ],
      [
        "ability",
        -8.437473467207532
      ],
      [
        "after",
        -8.445860762311165
      ],
      [
        "basic",
        -8.461445564268361
      ],
      [
        "precise",
        -8.461469371228311
      ],
      [
        "optimize",
        -8.465109193005453
      ],
      [
        "initiati",
        -8.473063516639609
      ],
      [
        "first",
        -8.47465869583513
      ],
      [
        "sophisticat",
        -8.479984062514859
      ],
      [
        "exploration",
        -8.496424431386714
      ],
      [
        "mark",
        -8.501579224208061
      ],
      [
        "capabilit",
        -8.504483996282588
      ],
      [
        "outcome",
        -8.513342091886225
      ],
      [
        "quality",
        -8.51838429137126
      ],
      [
        "passe",
        -8.51880229000415
      ],
      [
        "forward",
        -8.52086083783867
      ],
      [
        "route",
        -8.52263714924053
      ],
      [
        "preliminary",
        -8.540584171200535
      ],
      [
        "provid",
        -8.541167040626357
      ],
      [
        "employ",
        -8.543366113427172
      ],
      [
        "hav",
        -8.545457480144329
      ],
      [
        "suggest",
        -8.548973324885601
      ],
      [
        "revision",
        -8.558283491057917
      ],
      [
        "ous",
        -8.560439317590527
      ],
      [
        "result",
        -8.560583173475017
      ],
      [
        "Base",
        -8.560670561245686
      ],
      [
        "ystem",
        -8.565078645919407
      ],
      [
        "vari",
        -8.576856645317115
      ],
      [
        "complexit",
        -8.577021269740015
      ],
      [
        "whe",
        -8.579738648346453
      ],
      [
        "reach",
        -8.581676948598606
      ],
      [
        "response",
        -8.584010286419709
      ],
      [
        "understanding",
        -8.585914990390977
      ],
      [
        "Context",
        -8.586980636546782
      ],
      [
        "distinct",
        -8.595932922098076
      ],
      [
        "high",
        -8.59640740567259
      ],
      [
        "handl",
        -8.597597393362406
      ],
      [
        "interpretation",
        -8.598861022063716
      ],
      [
        "assessment",
        -8.604649893567663
      ],
      [
        "sequen",
        -8.60499995276011
      ],
      [
        "mak",
        -8.607504645847325
      ],
      [
        "culminat",
        -8.612979942959319
      ],
      [
        "reformulate",
        -8.619520416940166
      ],
      [
        "integrated",
        -8.619703934229888
      ],
      [
        "Prompt",
        -8.623293127872262
      ],
      [
        "cycle",
        -8.626736798416513
      ],
      [
        "strategi",
        -8.635112342101522
      ],
      [
        "these",
        -8.636683041919678
      ],
      [
        "engage",
        -8.638751038658922
      ],
      [
        "jo",
        -8.639075498740208
      ],
      [
        "urne",
        -8.64355776313063
      ],
      [
        "introduce",
        -8.645176234330808
      ],
      [
        "approache",
        -8.649428365397938
      ],
      [
        "’",
        -8.664039186887068
      ],
      [
        "finaliz",
        -8.66522221393732
      ],
      [
        "Analyzer",
        -8.666080906723025
      ],
      [
        "successful",
        -8.671703996616298
      ],
      [
        "phase",
        -8.671888759166979
      ],
      [
        "cy",
        -8.673771009979838
      ],
      [
        "ated",
        -8.679937159279858
      ],
      [
        "ally",
        -8.68173808465922
      ],
      [
        "multip",
        -8.68480409546336
      ],
      [
        "includ",
        -8.68677282718118
      ],
      [
        "error",
        -8.692798873960042
      ],
      [
        "math",
        -8.700312362341686
      ],
      [
        "breakdown",
        -8.701474237566702
      ],
      [
        "algebra",
        -8.70324077980446
      ],
      [
        "point",
        -8.70656807090121
      ],
      [
        "enhanc",
        -8.707274427690137
      ],
      [
        "decomposition",
        -8.710162236252376
      ],
      [
        "Deep",
        -8.716510568537704
      ],
      [
        "operation",
        -8.716907086176032
      ],
      [
        "proceed",
        -8.733970451017715
      ],
      [
        "serve",
        -8.734376263990956
      ],
      [
        "nterpretation",
        -8.74456877863385
      ],
      [
        "integrate",
        -8.745374975086719
      ],
      [
        "different",
        -8.749398392391363
      ],
      [
        "optimization",
        -8.749590469347917
      ],
      [
        "calculus",
        -8.751163370822521
      ],
      [
        "efficien",
        -8.754206562087226
      ],
      [
        "geometry",
        -8.754978712740511
      ],
      [
        "optimal",
        -8.758423293586382
      ],
      [
        "explore",
        -8.760744954102014
      ],
      [
        "errors",
        -8.761432485810392
      ],
      [
        "require",
        -8.770899162101218
      ],
      [
        "dynamic",
        -8.7753296322352
      ],
      [
        "_solver",
        -8.777645542297126
      ],
      [
        "undergo",
        -8.787019101726678
      ],
      [
        "lead",
        -8.790642031250677
      ],
      [
        "hou",
        -8.805386034392772
      ],
      [
        "compute",
        -8.808850115161192
      ],
      [
        "flow",
        -8.80917376983917
      ],
      [
        "T",
        -8.810746653550485
      ],
      [
        "use",
        -8.823448926735399
      ],
      [
        "immediate",
        -8.82773498482116
      ],
      [
        "h",
        -8.829553742698632
      ],
      [
        "equation",
        -8.831522307415817
      ],
      [
        "valid",
        -8.843806072224579
      ],
      [
        "AdvancedMath",
        -8.850230495437938
      ],
      [
        "analyz",
        -8.850342922495031
      ],
      [
        "involve",
        -8.853765907176733
      ],
      [
        "W",
        -8.854052169450458
      ],
      [
        "ke",
        -8.858897232879384
      ],
      [
        "transferr",
        -8.859146369578415
      ],
      [
        "onfidence",
        -8.866274705968493
      ],
      [
        "complete",
        -8.86648846335383
      ],
      [
        "manage",
        -8.875225409618501
      ],
      [
        "elcome",
        -8.88613839473373
      ],
      [
        "self",
        -8.892503988375502
      ],
      [
        "ity",
        -8.893691682889594
      ],
      [
        "('",
        -8.894416682534203
      ],
      [
        "intricate",
        -8.898251256682022
      ],
      [
        "strategy",
        -8.902797352556378
      ],
      [
        "examin",
        -8.903999251910692
      ],
      [
        "conclusive",
        -8.910458587523769
      ],
      [
        "pathway",
        -8.91048572202509
      ],
      [
        "formation",
        -8.914426543309105
      ],
      [
        "}",
        -8.915390914612056
      ],
      [
        "detail",
        -8.91775258477421
      ],
      [
        "Solve",
        -8.918706267471908
      ],
      [
        "enhancement",
        -8.919010794951046
      ],
      [
        "standard",
        -8.922855407953344
      ],
      [
        "initiat",
        -8.924515955155012
      ],
      [
        "logic",
        -8.928629053417884
      ],
      [
        "subsequent",
        -8.935420228240119
      ],
      [
        "ight",
        -8.937232023330992
      ],
      [
        "over",
        -8.938445259724606
      ],
      [
        "ion",
        -8.941398309073953
      ],
      [
        "Composite",
        -8.94386450120917
      ],
      [
        "decompose",
        -8.94576399029858
      ],
      [
        "engin",
        -8.94813575508363
      ],
      [
        "Hybrid",
        -8.951603946348925
      ],
      [
        "introduc",
        -8.956579889625534
      ],
      [
        "solution_found",
        -8.956800716411795
      ],
      [
        "focus",
        -8.96186020765861
      ],
      [
        "represent",
        -8.962585297329195
      ],
      [
        "')",
        -8.966214057984054
      ],
      [
        "layer",
        -8.966316544890322
      ],
      [
        "current",
        -8.974039153586139
      ],
      [
        "strategic",
        -8.97487232930592
      ],
      [
        "assess",
        -8.975005126472482
      ],
      [
        "llm_solution_",
        -8.979110272772548
      ],
      [
        "_not_found",
        -8.991141708818791
      ],
      [
        "arithmetic",
        -8.991699628001518
      ],
      [
        "meet",
        -8.991783118247492
      ],
      [
        "dual",
        -8.99232640684152
      ],
      [
        "proposed",
        -9.00110887449987
      ],
      [
        "Primary",
        -9.005152723177037
      ],
      [
        "intermediate",
        -9.008817886470444
      ],
      [
        "definitive",
        -9.009687643541064
      ],
      [
        "synthesize",
        -9.010005262363808
      ],
      [
        "LLM_solver",
        -9.022738925331316
      ],
      [
        "takes",
        -9.024894751840028
      ],
      [
        "SolverLLM",
        -9.025279147105698
      ],
      [
        "appropriate",
        -9.027984725515761
      ],
      [
        "ple",
        -9.028434533947888
      ],
      [
        "uncertain",
        -9.031022936356798
      ],
      [
        "describe",
        -9.031673438575604
      ],
      [
        "tackl",
        -9.037061199128324
      ],
      [
        "formulate",
        -9.038482059622472
      ],
      [
        "MathSolverLLM",
        -9.038920019019907
      ],
      [
        "leverage",
        -9.041395274666868
      ],
      [
        "previous",
        -9.041938478319004
      ],
      [
        "Review",
        -9.04919747025205
      ],
      [
        "parse",
        -9.050710890487768
      ],
      [
        "Refiner",
        -9.052646445719141
      ],
      [
        "deliver",
        -9.060851482594764
      ],
      [
        "algebraic",
        -9.074646220548548
      ],
      [
        "concept",
        -9.079764970049002
      ],
      [
        "transition",
        -9.089913247438433
      ],
      [
        "adjustment",
        -9.095294851258998
      ],
      [
        "finding",
        -9.096756600834496
      ],
      [
        "Verifie",
        -9.103685280359155
      ],
      [
        "Comprehensive",
        -9.114786004304255
      ],
      [
        "seri",
        -9.114957524052581
      ],
      [
        "interconnect",
        -9.125038282408813
      ],
      [
        "apply",
        -9.130691412974304
      ],
      [
        "collaborate",
        -9.130886217111506
      ],
      [
        "ive",
        -9.132093982378354
      ],
      [
        "systematic",
        -9.135144492083125
      ],
      [
        "conduct",
        -9.140297536632199
      ],
      [
        "red",
        -9.144924291175204
      ],
      [
        "highe",
        -9.155086587824226
      ],
      [
        "focuse",
        -9.161766554358755
      ],
      [
        "L",
        -9.177095062735901
      ],
      [
        "append",
        -9.17735551315824
      ],
      [
        "llm_",
        -9.187591160280355
      ],
      [
        "verifier",
        -9.189823139272166
      ],
      [
        "tailor",
        -9.199616890436795
      ],
      [
        "Optimizer",
        -9.199754834513502
      ],
      [
        "scrutinize",
        -9.200195718876602
      ],
      [
        "Begin",
        -9.204319299314356
      ],
      [
        "simplify",
        -9.204319327364711
      ],
      [
        "Handler",
        -9.206782062807395
      ],
      [
        "primary",
        -9.221688353645838
      ],
      [
        "level",
        -9.22660581266295
      ],
      [
        "D",
        -9.23158838012024
      ],
      [
        "consist",
        -9.232247085538162
      ],
      [
        "indicat",
        -9.242308703742044
      ],
      [
        "articulate",
        -9.247909872140488
      ],
      [
        "confident",
        -9.249397178536753
      ],
      [
        "presentation",
        -9.250746226753714
      ],
      [
        "categorize",
        -9.258559957982936
      ],
      [
        "function",
        -9.265831706683933
      ],
      [
        "investigation",
        -9.266856974409485
      ],
      [
        "leverag",
        -9.26751997209377
      ],
      [
        "receiv",
        -9.267602384524276
      ],
      [
        "fre",
        -9.27005117255849
      ],
      [
        "depend",
        -9.272735189426939
      ],
      [
        "reflection",
        -9.272742081678052
      ],
      [
        "ready",
        -9.273367680015278
      ],
      [
        "Interpret",
        -9.274731515346572
      ],
      [
        "methodolog",
        -9.276692914069878
      ],
      [
        "til",
        -9.28716759868999
      ],
      [
        "area",
        -9.28755063706274
      ],
      [
        "Clarification",
        -9.290579349480632
      ],
      [
        "include",
        -9.296865640870955
      ],
      [
        "llm_refinement",
        -9.297175988231805
      ],
      [
        "when",
        -9.30298056538351
      ],
      [
        "Optimization",
        -9.308762753150639
      ],
      [
        "Analyze",
        -9.316612118284791
      ],
      [
        "addresse",
        -9.321637227819362
      ],
      [
        "Ou",
        -9.327648702799108
      ],
      [
        "validat",
        -9.34057859503782
      ],
      [
        "decid",
        -9.341011980346416
      ],
      [
        "methodologi",
        -9.341915649011767
      ],
      [
        "cross",
        -9.34450371536295
      ],
      [
        "indicate",
        -9.347552320114492
      ],
      [
        "needs_",
        -9.347847681487718
      ],
      [
        "Equation",
        -9.349373386393633
      ],
      [
        "whil",
        -9.359018108917823
      ],
      [
        "Validate",
        -9.365380320139087
      ],
      [
        "examine",
        -9.369605024856112
      ],
      [
        "offer",
        -9.371914036391205
      ],
      [
        "symbolic",
        -9.372302068231603
      ],
      [
        "generate",
        -9.376537633997517
      ],
      [
        "Decomposer",
        -9.379626546309854
      ],
      [
        "commence",
        -9.380577911932185
      ],
      [
        "LLM_Solver",
        -9.38126862020031
      ],
      [
        "validator",
        -9.383925102786971
      ],
      [
        "Follow",
        -9.385171747722936
      ],
      [
        "Detailed",
        -9.386040646180064
      ],
      [
        "geometric",
        -9.386436678988636
      ],
      [
        "crit",
        -9.391597097832449
      ],
      [
        "eria",
        -9.391663905733623
      ],
      [
        "delve",
        -9.393012640836204
      ],
      [
        "analyse",
        -9.398519625311923
      ],
      [
        "pos",
        -9.399317311231517
      ],
      [
        "solution_validat",
        -9.402733905561146
      ],
      [
        "improvement",
        -9.405011592261147
      ],
      [
        "wel",
        -9.406824813756863
      ],
      [
        "request",
        -9.411747412278228
      ],
      [
        "insert",
        -9.411747624277787
      ],
      [
        "lement",
        -9.411756284940992
      ],
      [
        "scenario",
        -9.418548792064406
      ],
      [
        "communicate",
        -9.423229029399131
      ],
      [
        "ProblemSolver",
        -9.425876934986027
      ],
      [
        "consistency",
        -9.43395876847394
      ],
      [
        "Initiate",
        -9.434509378010013
      ],
      [
        "combin",
        -9.437878861330592
      ],
      [
        "iv",
        -9.438606338242577
      ],
      [
        "like",
        -9.439250596316061
      ],
      [
        "incorporat",
        -9.439616637591698
      ],
      [
        "detect",
        -9.442468834899984
      ],
      [
        "deriv",
        -9.450169496819523
      ],
      [
        "construct",
        -9.453166969646178
      ],
      [
        "simplification",
        -9.453174983895337
      ],
      [
        "reas",
        -9.470304896477455
      ],
      [
        "responsib",
        -9.474037346413839
      ],
      [
        "mov",
        -9.481096217730848
      ],
      [
        "guide",
        -9.491067729559031
      ],
      [
        "expression",
        -9.49660225221492
      ],
      [
        "Node",
        -9.496608087848145
      ],
      [
        ";",
        -9.50400965960992
      ],
      [
        "‘",
        -9.511472346177083
      ],
      [
        "Interpreter",
        -9.511535428441869
      ],
      [
        "verifie",
        -9.514068607488623
      ],
      [
        "contribut",
        -9.519102809831443
      ],
      [
        "anne",
        -9.522911683297188
      ],
      [
        "LLM_math_solver",
        -9.52604141516321
      ],
      [
        "llm_problem_",
        -9.530904079890494
      ],
      [
        "statistics",
        -9.542078125357644
      ],
      [
        "special",
        -9.549469422498243
      ],
      [
        "F",
        -9.549948951525426
      ],
      [
        "Reviewe",
        -9.56104010071105
      ],
      [
        "v",
        -9.579364492442135
      ],
      [
        "ultimate",
        -9.58126776632876
      ],
      [
        "option",
        -9.589220082423392
      ],
      [
        "setup",
        -9.59229884645513
      ],
      [
        "utiliz",
        -9.597241306857336
      ],
      [
        "efined",
        -9.611530338901462
      ],
      [
        "P",
        -9.612802085780423
      ],
      [
        "rout",
        -9.613807724601767
      ],
      [
        "Output",
        -9.613923606961805
      ],
      [
        "receive",
        -9.621178986511351
      ],
      [
        "propose",
        -9.625347830349643
      ],
      [
        "undertake",
        -9.631678725506916
      ],
      [
        "polishe",
        -9.63186446127806
      ],
      [
        "completion",
        -9.647685777667876
      ],
      [
        "data",
        -9.648631900697278
      ],
      [
        "sent",
        -9.659248212713415
      ],
      [
        "out",
        -9.661395775473816
      ],
      [
        "requirement",
        -9.665138398092406
      ],
      [
        "revise",
        -9.66696283538359
      ],
      [
        "O",
        -9.668712787706502
      ],
      [
        "via",
        -9.669023968483748
      ],
      [
        "_solution_node",
        -9.669650215496517
      ],
      [
        "off",
        -9.670069293697594
      ],
      [
        "focused",
        -9.671014840112099
      ],
      [
        "approv",
        -9.673654655089354
      ],
      [
        "scrutin",
        -9.67367588305968
      ],
      [
        "broad",
        -9.683151322538894
      ],
      [
        "optimiz",
        -9.683969382285193
      ],
      [
        "etup",
        -9.68829526210024
      ],
      [
        "clarifications",
        -9.69108236759476
      ],
      [
        "Complex",
        -9.691439745877723
      ],
      [
        "fully",
        -9.693470272918903
      ],
      [
        "state",
        -9.69494423099183
      ],
      [
        "_interpreter",
        -9.697861745231661
      ],
      [
        "_combined",
        -9.699912825145645
      ],
      [
        "_clarification",
        -9.702652111206168
      ],
      [
        "case",
        -9.710305483815313
      ],
      [
        "synthesiz",
        -9.711883016876158
      ],
      [
        "integration",
        -9.712438043683473
      ],
      [
        "ance",
        -9.716716076943538
      ],
      [
        "x",
        -9.71847105950407
      ],
      [
        "Work",
        -9.71882259717808
      ],
      [
        "After",
        -9.718824211503364
      ],
      [
        "hybrid",
        -9.725860846186578
      ],
      [
        "explor",
        -9.727253591520746
      ],
      [
        "/",
        -9.728081708830356
      ],
      [
        "Model",
        -9.728081709109386
      ],
      [
        "format",
        -9.728331130883198
      ],
      [
        "EquationS",
        -9.728508414263345
      ],
      [
        "incorrect",
        -9.734299643867176
      ],
      [
        "arge",
        -9.737022447742511
      ],
      [
        "particular",
        -9.737427821562743
      ],
      [
        "interim",
        -9.74514223942159
      ],
      [
        "craft",
        -9.746861598732885
      ],
      [
        "methodical",
        -9.746903918370196
      ],
      [
        "involv",
        -9.748792052278038
      ],
      [
        "ust",
        -9.754155078413424
      ],
      [
        "evaluative",
        -9.756427051467398
      ],
      [
        "combined",
        -9.762001883069347
      ],
      [
        "reevaluation",
        -9.765196374886033
      ],
      [
        "outline",
        -9.765292603286998
      ],
      [
        "ment",
        -9.76563359980265
      ],
      [
        "age",
        -9.767257633863922
      ],
      [
        "respective",
        -9.775709398434081
      ],
      [
        "Up",
        -9.77650466801948
      ],
      [
        "llm_refinement_",
        -9.789198057169862
      ],
      [
        "En",
        -9.79158306437117
      ],
      [
        "nuance",
        -9.805439270732732
      ],
      [
        "exhaustive",
        -9.805480524033651
      ],
      [
        "equip",
        -9.806269803092043
      ],
      [
        "HybridMathSolver",
        -9.809056449896126
      ],
      [
        "rise",
        -9.810301168483335
      ],
      [
        "LLM_integrat",
        -9.815064523088203
      ],
      [
        "Algebra",
        -9.815512274996516
      ],
      [
        "question",
        -9.815515883348226
      ],
      [
        "Combined",
        -9.816267278314886
      ],
      [
        "innovative",
        -9.816391513694725
      ],
      [
        "Handle",
        -9.821150952769973
      ],
      [
        "very",
        -9.822275895046886
      ],
      [
        "\"",
        -9.8257194008916
      ],
      [
        "LLM_parse",
        -9.826439832066537
      ],
      [
        "Po",
        -9.827029182478675
      ],
      [
        "kick",
        -9.841026117307523
      ],
      [
        "parallel",
        -9.84664895551926
      ],
      [
        "seamless",
        -9.846688775873563
      ],
      [
        "finalizer",
        -9.85047822842482
      ],
      [
        "lector",
        -9.851107229068312
      ],
      [
        "category",
        -9.856971663885925
      ],
      [
        "utilize",
        -9.857259548724576
      ],
      [
        "LLM_ref",
        -9.862635204315481
      ],
      [
        "Correct",
        -9.867609959600324
      ],
      [
        "redirect",
        -9.86916337229859
      ],
      [
        "...",
        -9.872894347231416
      ],
      [
        "Solution_",
        -9.876560750392262
      ],
      [
        "&",
        -9.878362647742641
      ],
      [
        "mechanism",
        -9.878364879107764
      ],
      [
        "framework",
        -9.878403677425755
      ],
      [
        "Ensure",
        -9.87851356185023
      ],
      [
        "For",
        -9.881217486433382
      ],
      [
        "integr",
        -9.881675753085723
      ],
      [
        "resolv",
        -9.88783266581595
      ],
      [
        "Detect",
        -9.889127043401714
      ],
      [
        "implicit",
        -9.8892322678915
      ],
      [
        "operate",
        -9.889498037989817
      ],
      [
        "LLM_decompose",
        -9.893153214952804
      ],
      [
        "ve",
        -9.897115141989353
      ],
      [
        "Integrate",
        -9.903539828771361
      ],
      [
        "Present",
        -9.90697156786162
      ],
      [
        "Refine",
        -9.909621872712272
      ],
      [
        "Geometry",
        -9.911332335060152
      ],
      [
        "continuous",
        -9.911350536439906
      ],
      [
        "expert",
        -9.91149921738288
      ],
      [
        "but",
        -9.91431820883902
      ],
      [
        "simplifie",
        -9.914391829292938
      ],
      [
        "combine",
        -9.922518316526844
      ],
      [
        "All",
        -9.934434412964947
      ],
      [
        "iscrepanc",
        -9.937196331108474
      ],
      [
        "categoriz",
        -9.93914295309052
      ],
      [
        "subproblem",
        -9.941719064010186
      ],
      [
        "coherent",
        -9.945426181430436
      ],
      [
        "clarify",
        -9.945571648389915
      ],
      [
        "confirmation",
        -9.94909817739451
      ],
      [
        "Dual",
        -9.95590784609174
      ],
      [
        "trigger",
        -9.957054086352432
      ],
      [
        "visualiz",
        -9.958669438118658
      ],
      [
        "problem_parser",
        -9.968824889439198
      ],
      [
        "replace",
        -9.969138707019459
      ],
      [
        "bject",
        -9.969331793035854
      ],
      [
        "uncertaint",
        -9.972899143348336
      ],
      [
        "Subsequent",
        -9.980724400058358
      ],
      [
        "divers",
        -9.98091821794188
      ],
      [
        "Utilize",
        -9.983124660717541
      ],
      [
        "C",
        -9.984647515005715
      ],
      [
        "classification",
        -9.992771746890117
      ],
      [
        "Secondary",
        -9.992826218164453
      ],
      [
        "reassess",
        -9.995161608213607
      ],
      [
        "achieve",
        -9.997462390391028
      ],
      [
        "culminate",
        -10.00153511690549
      ],
      [
        "math_solver_",
        -10.00470705861993
      ],
      [
        "round",
        -10.006680497079964
      ],
      [
        "assur",
        -10.01498098688514
      ],
      [
        "stat",
        -10.015092738951381
      ],
      [
        "optimizer",
        -10.015815804701802
      ],
      [
        "facet",
        -10.021895060138457
      ],
      [
        "nce",
        -10.023742744346395
      ],
      [
        "llm_advanced_",
        -10.027351546944578
      ],
      [
        "update",
        -10.03022711088466
      ],
      [
        "Enhance",
        -10.034663906633872
      ],
      [
        "Process",
        -10.038652544679932
      ],
      [
        "synthesi",
        -10.03865927154613
      ],
      [
        "alidity",
        -10.039605437645733
      ],
      [
        "sibility",
        -10.041285246807623
      ],
      [
        "coherenc",
        -10.042470794880423
      ],
      [
        "segment",
        -10.042556728552556
      ],
      [
        "clarifie",
        -10.055677964731409
      ],
      [
        "advance",
        -10.05570888650418
      ],
      [
        "user",
        -10.05630081866999
      ],
      [
        "identifi",
        -10.05733408829175
      ],
      [
        "place",
        -10.067925433257262
      ],
      [
        "holistic",
        -10.068335940945396
      ],
      [
        "cou",
        -10.072949988937076
      ],
      [
        "abstract",
        -10.081561145476574
      ],
      [
        "iterat",
        -10.09006705088018
      ],
      [
        "B",
        -10.094356223896632
      ],
      [
        "synta",
        -10.09476237007255
      ],
      [
        "Perform",
        -10.094769533695205
      ],
      [
        "prepar",
        -10.098266790689962
      ],
      [
        "flag",
        -10.10277836549808
      ],
      [
        "extensive",
        -10.108283184860923
      ],
      [
        "Computation",
        -10.108314676593539
      ],
      [
        "problemClarifier",
        -10.114061680913315
      ],
      [
        "ature",
        -10.119863060602375
      ],
      [
        "parse_problem",
        -10.123558041726064
      ],
      [
        "ngu",
        -10.123582206262059
      ],
      [
        "hybrid_",
        -10.124699655926095
      ],
      [
        "mall",
        -10.129910540243309
      ],
      [
        "denote",
        -10.13588798764204
      ],
      [
        "relat",
        -10.139494108276496
      ],
      [
        "formulation",
        -10.142716642682181
      ],
      [
        "Integrated",
        -10.160563649752095
      ],
      [
        "dive",
        -10.161042648542413
      ],
      [
        "_format",
        -10.164065200822499
      ],
      [
        "flawless",
        -10.164241434686536
      ],
      [
        "heuristic",
        -10.17696601960461
      ],
      [
        "quer",
        -10.178719236189576
      ],
      [
        "signal",
        -10.178736567532269
      ],
      [
        "dedicated",
        -10.180214731353612
      ],
      [
        "two",
        -10.18480815615278
      ],
      [
        "feature",
        -10.187842275109634
      ],
      [
        "Employ",
        -10.193439419433638
      ],
      [
        "graphical",
        -10.193536400033565
      ],
      [
        "Generat",
        -10.194617364100107
      ],
      [
        "checkpoint",
        -10.196194302979865
      ],
      [
        "unified",
        -10.208367193763515
      ],
      [
        "deem",
        -10.208465950979358
      ],
      [
        "elaborate",
        -10.209006367487866
      ],
      [
        "perspective",
        -10.223516307707797
      ],
      [
        "ailed",
        -10.226402643860045
      ],
      [
        "simple_",
        -10.232318374907003
      ],
      [
        "practice",
        -10.238900923092373
      ],
      [
        "concise",
        -10.238900933609045
      ],
      [
        "Type",
        -10.238903461003824
      ],
      [
        "statistical",
        -10.238979132503143
      ],
      [
        "Integrator",
        -10.239067148557655
      ],
      [
        "take",
        -10.239263104244161
      ],
      [
        "elucidati",
        -10.243041038332045
      ],
      [
        "reevaluate",
        -10.245438474804061
      ],
      [
        "needs_re",
        -10.259114235165047
      ],
      [
        "assesse",
        -10.265100860898205
      ],
      [
        "decomposer",
        -10.268415905912846
      ],
      [
        "vision",
        -10.269506286631593
      ],
      [
        "critique",
        -10.270674831855759
      ],
      [
        "Calculus",
        -10.28652863714449
      ],
      [
        "Understand",
        -10.286529307552001
      ],
      [
        "individual",
        -10.286578559774053
      ],
      [
        "execute",
        -10.290073574078995
      ],
      [
        "achiev",
        -10.29656077709127
      ],
      [
        "signifi",
        -10.296830980569705
      ],
      [
        "pon",
        -10.302825024293119
      ],
      [
        "central",
        -10.306055564102587
      ],
      [
        "Validation",
        -10.319588080520749
      ],
      [
        "decisive",
        -10.319590354162127
      ],
      [
        "cohesive",
        -10.319591071743618
      ],
      [
        "lease",
        -10.319617951719032
      ],
      [
        "cation",
        -10.321089813295702
      ],
      [
        "decompos",
        -10.324985590012295
      ],
      [
        "mpos",
        -10.333498451879041
      ],
      [
        "seek",
        -10.336539493763755
      ],
      [
        "ative",
        -10.337831053347301
      ],
      [
        "deepen",
        -10.33943091948035
      ],
      [
        "comprehensi",
        -10.34104707251977
      ],
      [
        "comprehensib",
        -10.351178068174779
      ],
      [
        "Provide",
        -10.353778612380223
      ],
      [
        "Optimized",
        -10.358074352436082
      ],
      [
        "tter",
        -10.37023079931094
      ],
      [
        "opportunit",
        -10.371322472029073
      ],
      [
        "unresolv",
        -10.371738331879417
      ],
      [
        "comput",
        -10.371764376858446
      ],
      [
        "new",
        -10.375165076037835
      ],
      [
        "specialize",
        -10.386843920441219
      ],
      [
        "develop",
        -10.38685218883375
      ],
      [
        "ility",
        -10.389012712135944
      ],
      [
        "collective",
        -10.389179614871471
      ],
      [
        "Intermediate",
        -10.389179614871537
      ],
      [
        "again",
        -10.389288103425805
      ],
      [
        "applie",
        -10.395398809652995
      ],
      [
        "generati",
        -10.398087250584107
      ],
      [
        "iterate",
        -10.40389588863534
      ],
      [
        "primar",
        -10.40523537766822
      ],
      [
        "principles",
        -10.407361468263748
      ],
      [
        "essential",
        -10.407361468358236
      ],
      [
        "strength",
        -10.407361490154493
      ],
      [
        "less",
        -10.408081139233648
      ],
      [
        "correction",
        -10.410335983343789
      ],
      [
        "uch",
        -10.410738259994279
      ],
      [
        "Verif",
        -10.412919557096275
      ],
      [
        "improve",
        -10.42052054109222
      ],
      [
        "prepare",
        -10.420615516826743
      ],
      [
        "under",
        -10.422299273392042
      ],
      [
        "perfect",
        -10.424208152919508
      ],
      [
        "highlight",
        -10.425901832614489
      ],
      [
        "Alternative",
        -10.425978465278966
      ],
      [
        "revisit",
        -10.426691518005185
      ],
      [
        "inform",
        -10.429369400914904
      ],
      [
        "form",
        -10.435586012083629
      ],
      [
        "consider",
        -10.443780661310656
      ],
      [
        "llm_iterative_",
        -10.444235194589321
      ],
      [
        "classify",
        -10.444747876111212
      ],
      [
        "adjust",
        -10.44671239298865
      ],
      [
        "_refinement_",
        -10.447015320194874
      ],
      [
        "ex",
        -10.456944088048953
      ],
      [
        "Break",
        -10.46346787951764
      ],
      [
        "vi",
        -10.463676904388226
      ],
      [
        "consideration",
        -10.463934975085419
      ],
      [
        "stringent",
        -10.46397865935838
      ],
      [
        "action",
        -10.463993371204603
      ],
      [
        "perfecti",
        -10.4657183290314
      ],
      [
        "architecture",
        -10.466021226221908
      ],
      [
        "easibility",
        -10.466138831009674
      ],
      [
        "llm_math_solver",
        -10.466174558373481
      ],
      [
        "partial",
        -10.478122626852308
      ],
      [
        "read",
        -10.48309420508133
      ],
      [
        "Feedback",
        -10.48358637990069
      ],
      [
        "definition",
        -10.483626599616395
      ],
      [
        "ization",
        -10.484052209538206
      ],
      [
        "main",
        -10.485006677540511
      ],
      [
        "navigate",
        -10.488127653876408
      ],
      [
        "Combine",
        -10.49632238316584
      ],
      [
        "qualit",
        -10.501401748867218
      ],
      [
        "unt",
        -10.503302231401076
      ],
      [
        "relay",
        -10.50362132665346
      ],
      [
        "return",
        -10.504468932386072
      ],
      [
        "blend",
        -10.504731778882054
      ],
      [
        "llm_initial_",
        -10.505042220035868
      ],
      [
        "ur",
        -10.518160046447427
      ],
      [
        "Result",
        -10.52259465921044
      ],
      [
        "specifi",
        -10.523357945737779
      ],
      [
        "Alternat",
        -10.52388599392091
      ],
      [
        "Engage",
        -10.52399520444295
      ],
      [
        "insufficient",
        -10.524347266974727
      ],
      [
        "build",
        -10.529479089468724
      ],
      [
        "featur",
        -10.532158290952491
      ],
      [
        "origina",
        -10.534807756738331
      ],
      [
        "Initiat",
        -10.538971886674112
      ],
      [
        "Determine",
        -10.544827985073848
      ],
      [
        "harness",
        -10.544828706671384
      ],
      [
        "easie",
        -10.545030428316785
      ],
      [
        "needs_further_",
        -10.54542384513057
      ],
      [
        "activate",
        -10.5501726339285
      ],
      [
        "elaborati",
        -10.555660576756525
      ],
      [
        "Geometric",
        -10.555793106041968
      ],
      [
        "inter",
        -10.564372962542562
      ],
      [
        "RefinementSolver",
        -10.56594581639162
      ],
      [
        "Help",
        -10.566106494916355
      ],
      [
        "simulation",
        -10.566123073868138
      ],
      [
        "dissection",
        -10.567125131029089
      ],
      [
        "llm_alternative_",
        -10.567917443552682
      ],
      [
        "nd",
        -10.568980741643077
      ],
      [
        "make",
        -10.570056487092856
      ],
      [
        "gear",
        -10.570797016671298
      ],
      [
        "repeat",
        -10.58174988994962
      ],
      [
        "predecessor",
        -10.587843711302202
      ],
      [
        "maintain",
        -10.587845252014805
      ],
      [
        "cooperative",
        -10.58784533491858
      ],
      [
        "advanc",
        -10.593619052049185
      ],
      [
        "Method",
        -10.596158791209405
      ],
      [
        "necessitate",
        -10.603481078490551
      ],
      [
        "oke",
        -10.604753459925808
      ],
      [
        "general",
        -10.610026376192492
      ],
      [
        "ctual",
        -10.610141102719453
      ],
      [
        "Scope",
        -10.610188156430308
      ],
      [
        "adaptive",
        -10.612595620449158
      ],
      [
        "Analys",
        -10.612818209307996
      ],
      [
        "maxim",
        -10.61925539971232
      ],
      [
        "invalid",
        -10.62060866334847
      ],
      [
        "disciplin",
        -10.621114658018222
      ],
      [
        "gap",
        -10.623312078010773
      ],
      [
        "Parse",
        -10.62474523631548
      ],
      [
        "6",
        -10.632793206195732
      ],
      [
        "Error",
        -10.632797492474353
      ],
      [
        "Pa",
        -10.633249683097148
      ],
      [
        "dictate",
        -10.633640083176545
      ],
      [
        "reflect",
        -10.63517362298435
      ],
      [
        "ble",
        -10.63925079850448
      ],
      [
        "vital",
        -10.6431685582246
      ],
      [
        "solution_generat",
        -10.646314728242974
      ],
      [
        "synerg",
        -10.64918697083609
      ],
      [
        "simplified",
        -10.649651689465504
      ],
      [
        "according",
        -10.65604902282583
      ],
      [
        "Additional",
        -10.656058222941144
      ],
      [
        "prior",
        -10.656061354387989
      ],
      [
        "draw",
        -10.656064811008896
      ],
      [
        "Revision",
        -10.65606829792771
      ],
      [
        "demand",
        -10.656114352575386
      ],
      [
        "theorem",
        -10.65615644138958
      ],
      [
        "subject",
        -10.656251258267583
      ],
      [
        "continue",
        -10.661242411798607
      ],
      [
        "etection",
        -10.674506789939477
      ],
      [
        "calculate",
        -10.679342847328515
      ],
      [
        "synergistic",
        -10.679859278757045
      ],
      [
        "channel",
        -10.679862046251193
      ],
      [
        "suggestion",
        -10.680692086759516
      ],
      [
        "flagg",
        -10.689715640583847
      ],
      [
        "Iterative",
        -10.690737296784224
      ],
      [
        "Mathematic",
        -10.698377673460294
      ],
      [
        "Decompose",
        -10.699680792345095
      ],
      [
        "plitt",
        -10.701541933144771
      ],
      [
        "incorporate",
        -10.702912313136064
      ],
      [
        "adapt",
        -10.70380328542479
      ],
      [
        "Broad",
        -10.704263485713778
      ],
      [
        "With",
        -10.704294753513846
      ],
      [
        "conceptual",
        -10.704328615159021
      ],
      [
        "align",
        -10.704381107882318
      ],
      [
        "algorithm",
        -10.704482709697027
      ],
      [
        "ambiguit",
        -10.70450987599143
      ],
      [
        "specialist",
        -10.704628831731775
      ],
      [
        "}’",
        -10.705304675806193
      ],
      [
        "progressive",
        -10.70546715315541
      ],
      [
        "improv",
        -10.711291066725346
      ],
      [
        "evaluat",
        -10.713670448415915
      ],
      [
        "ful",
        -10.721723215936345
      ],
      [
        "guid",
        -10.723006809782845
      ],
      [
        "strategy_",
        -10.726030521353163
      ],
      [
        "Simulator",
        -10.729248787861183
      ],
      [
        "Simple",
        -10.729248834651914
      ],
      [
        "configur",
        -10.72924922927862
      ],
      [
        "core",
        -10.730880469267815
      ],
      [
        "analytic",
        -10.747660900194033
      ],
      [
        "understand",
        -10.749040583777752
      ],
      [
        "interact",
        -10.754856405952543
      ],
      [
        "Ultimate",
        -10.754889813812264
      ],
      [
        "intensive",
        -10.754889840377151
      ],
      [
        "extract",
        -10.755669329295788
      ],
      [
        "llm_verification",
        -10.76075554860003
      ],
      [
        "enriche",
        -10.76564396853839
      ],
      [
        "lm_hybrid_solver",
        -10.76897814986894
      ],
      [
        "driv",
        -10.770622292647806
      ],
      [
        "SolutionVerifier",
        -10.771270254114405
      ],
      [
        "_verifier",
        -10.77717404338992
      ],
      [
        "—",
        -10.781205602975891
      ],
      [
        "Consolidat",
        -10.781206149291856
      ],
      [
        "careful",
        -10.781486463378425
      ],
      [
        "veral",
        -10.781696089661477
      ],
      [
        "Optimize",
        -10.795599853088017
      ],
      [
        "discrepanc",
        -10.800450522402707
      ],
      [
        "encapsulate",
        -10.800634272946539
      ],
      [
        "problem_un",
        -10.807160921190462
      ],
      [
        "practical",
        -10.808232630031359
      ],
      [
        "affirm",
        -10.808232636242497
      ],
      [
        "Decomposition",
        -10.80823270474092
      ],
      [
        "time",
        -10.808490713901332
      ],
      [
        "domain",
        -10.808562148529367
      ],
      [
        "numerical",
        -10.809594687171604
      ],
      [
        "H",
        -10.821489905871868
      ],
      [
        "underst",
        -10.826017302564475
      ],
      [
        "uitable",
        -10.827527636487094
      ],
      [
        "foundation",
        -10.831933741477318
      ],
      [
        "knowledge",
        -10.836010407780782
      ],
      [
        "applicab",
        -10.836010408091282
      ],
      [
        "explanation",
        -10.836028579835894
      ],
      [
        "creative",
        -10.836043030080988
      ],
      [
        "arriv",
        -10.83609080549426
      ],
      [
        "systemic",
        -10.83765656104464
      ],
      [
        "intelligent",
        -10.838979346476114
      ],
      [
        "elucidate",
        -10.844253906004415
      ],
      [
        "discipline",
        -10.85050889835502
      ],
      [
        "Evaluate",
        -10.864581836352531
      ],
      [
        "hold",
        -10.864586303604822
      ],
      [
        "encounter",
        -10.86461862300784
      ],
      [
        "Prepare",
        -10.864773302951487
      ],
      [
        "Simplifie",
        -10.865331259332272
      ],
      [
        "optimality",
        -10.865332910586144
      ],
      [
        "explicit",
        -10.86542365032309
      ],
      [
        "split",
        -10.867997286598257
      ],
      [
        "embark",
        -10.868441561000418
      ],
      [
        "necessit",
        -10.87028864734405
      ],
      [
        "Focuse",
        -10.878611879407902
      ],
      [
        "challeng",
        -10.882662501688504
      ],
      [
        "Refined",
        -10.886918361047718
      ],
      [
        "unrival",
        -10.893993789154733
      ],
      [
        "tion",
        -10.894217983780289
      ],
      [
        "deconstruct",
        -10.894265675865498
      ],
      [
        "effort",
        -10.894682513511018
      ],
      [
        "tended",
        -10.896163985410842
      ],
      [
        "push",
        -10.896984390863071
      ],
      [
        "certaint",
        -10.89802662599736
      ],
      [
        "llm_hybrid_",
        -10.902379578633921
      ],
      [
        "necessitat",
        -10.90410227972686
      ],
      [
        "integral",
        -10.912182450696779
      ],
      [
        "buil",
        -10.916170396278211
      ],
      [
        "submi",
        -10.924111024463258
      ],
      [
        "Explain",
        -10.92429663138612
      ],
      [
        "entire",
        -10.924297146302289
      ],
      [
        "superior",
        -10.924299627266524
      ],
      [
        "Theorem",
        -10.924313920683414
      ],
      [
        "consolidation",
        -10.924339419509817
      ],
      [
        "interaction",
        -10.924457250945522
      ],
      [
        "indication",
        -10.924933295023767
      ],
      [
        "ention",
        -10.92963069603913
      ],
      [
        "precede",
        -10.9356741893919
      ],
      [
        "fine",
        -10.935826857061594
      ],
      [
        "preced",
        -10.94394336481133
      ],
      [
        "polish",
        -10.951029748823377
      ],
      [
        "earl",
        -10.95483543405956
      ],
      [
        "distribut",
        -10.955546631426659
      ],
      [
        "Prover",
        -10.95555008789453
      ],
      [
        "independent",
        -10.955817051995677
      ],
      [
        "merg",
        -10.967115280215774
      ],
      [
        "initialize",
        -10.970359866449833
      ],
      [
        "HybridSolver",
        -10.97340056912219
      ],
      [
        "evolve",
        -10.9795081586887
      ],
      [
        "final_review",
        -10.980518499688502
      ],
      [
        "capab",
        -10.98429344840141
      ],
      [
        "con",
        -10.985232838553543
      ],
      [
        "investigat",
        -10.987706874877693
      ],
      [
        "success",
        -10.98772206697741
      ],
      [
        "alternate",
        -10.98780469592076
      ],
      [
        "inquir",
        -10.98780471152704
      ],
      [
        "degree",
        -10.987804809051111
      ],
      [
        "tentative",
        -10.98780495873077
      ],
      [
        "consistent",
        -10.987832580398154
      ],
      [
        "branch",
        -10.987902221893918
      ],
      [
        "procedure",
        -10.988018836563185
      ],
      [
        "engag",
        -10.988519017674173
      ],
      [
        "HybridMath",
        -10.990191471153093
      ],
      [
        "right",
        -10.992586999867216
      ],
      [
        "deep_analysis",
        -10.992729927035267
      ],
      [
        "collaborati",
        -10.994057819346974
      ],
      [
        "elegant",
        -11.001141704722606
      ],
      [
        "_evaluation",
        -11.00234665924153
      ],
      [
        "contextual",
        -11.00906816334684
      ],
      [
        "quick",
        -11.020628888941424
      ],
      [
        "produce",
        -11.02065532298356
      ],
      [
        "intrica",
        -11.020822490526967
      ],
      [
        "excel",
        -11.020889025990213
      ],
      [
        "First",
        -11.021138148866546
      ],
      [
        "responsibilit",
        -11.02427218805791
      ],
      [
        "reassessment",
        -11.025302210113407
      ],
      [
        "We",
        -11.025480706118316
      ],
      [
        "Aim",
        -11.027209600079333
      ],
      [
        "functionalit",
        -11.027390648840136
      ],
      [
        "call",
        -11.02784196385259
      ],
      [
        "enabl",
        -11.028319249250547
      ],
      [
        "reache",
        -11.0339538355123
      ],
      [
        "refinement_and_",
        -11.037263636537958
      ],
      [
        "U",
        -11.038146555552737
      ],
      [
        "propos",
        -11.03925881804593
      ],
      [
        "reassesse",
        -11.052194028203392
      ],
      [
        "second",
        -11.054788692412224
      ],
      [
        "ritique",
        -11.055065439958868
      ],
      [
        "assign",
        -11.055621504055113
      ],
      [
        "skill",
        -11.05563285565243
      ],
      [
        "ascertain",
        -11.055727025645083
      ],
      [
        "attain",
        -11.055766859938174
      ],
      [
        "minor",
        -11.055814994577112
      ],
      [
        "llm_integrated_",
        -11.05649352827897
      ],
      [
        "extra",
        -11.057748622672001
      ],
      [
        "Decision",
        -11.05880694788344
      ],
      [
        "llm_combined_",
        -11.062224205239543
      ],
      [
        "llm_deep_",
        -11.064146125269295
      ],
      [
        "ground",
        -11.06810718961015
      ],
      [
        "specializ",
        -11.074635112097953
      ],
      [
        "commenc",
        -11.079398683849913
      ],
      [
        "rien",
        -11.084152225245257
      ],
      [
        "classifie",
        -11.086678672157543
      ],
      [
        "architect",
        -11.08752136195636
      ],
      [
        "processor",
        -11.089148757500377
      ],
      [
        "pect",
        -11.089225556920102
      ],
      [
        "recommend",
        -11.090958114376711
      ],
      [
        "fundamental",
        -11.091335073551496
      ],
      [
        "Commenc",
        -11.091335073572797
      ],
      [
        "pinpoint",
        -11.091408814447218
      ],
      [
        "obtain",
        -11.0914530572654
      ],
      [
        "inspect",
        -11.091548380523538
      ],
      [
        "way",
        -11.092601611443847
      ],
      [
        "elevate",
        -11.093202643061977
      ],
      [
        "problem_analysis",
        -11.09610695847839
      ],
      [
        "He",
        -11.11039249571245
      ],
      [
        "Clarifier",
        -11.113993213707674
      ],
      [
        "tic",
        -11.115977331341034
      ],
      [
        "R",
        -11.116261894394047
      ],
      [
        "art",
        -11.116729361146636
      ],
      [
        "unit",
        -11.116993617494844
      ],
      [
        "here",
        -11.117097356386545
      ],
      [
        "unsolvab",
        -11.118057274296898
      ],
      [
        "Step",
        -11.126740922155017
      ],
      [
        "Arithmetic",
        -11.128372110582932
      ],
      [
        "impeccabl",
        -11.128372110588556
      ],
      [
        "funnel",
        -11.128372112765474
      ],
      [
        "Conclude",
        -11.128372140142545
      ],
      [
        "field",
        -11.128372390013304
      ],
      [
        "Through",
        -11.128373578808715
      ],
      [
        "look",
        -11.128457444900615
      ],
      [
        "proof",
        -11.128481344824007
      ],
      [
        "render",
        -11.128516431829926
      ],
      [
        "Statistical",
        -11.12903254313214
      ],
      [
        "relevan",
        -11.129162464679442
      ],
      [
        "Pre",
        -11.12966039397266
      ],
      [
        "classifier",
        -11.13322721654622
      ],
      [
        "LLM_math_validat",
        -11.133835605566636
      ],
      [
        "facilitate",
        -11.13966865424929
      ],
      [
        "optional",
        -11.140870895279967
      ],
      [
        "me",
        -11.143783054819313
      ],
      [
        "activati",
        -11.144065477328791
      ],
      [
        "streamline",
        -11.162504371759573
      ],
      [
        "inaccura",
        -11.163764831068763
      ],
      [
        "enter",
        -11.165505464374803
      ],
      [
        "recursive",
        -11.16683364904819
      ],
      [
        "incremental",
        -11.166833649176066
      ],
      [
        "encompass",
        -11.16683442331334
      ],
      [
        "ouble",
        -11.16686486764142
      ],
      [
        "great",
        -11.166898431484547
      ],
      [
        "module",
        -11.168375798115061
      ],
      [
        "preprocess",
        -11.168720618809731
      ],
      [
        "empower",
        -11.171627365026728
      ],
      [
        "mod",
        -11.183198878564848
      ],
      [
        "summarize",
        -11.190034572357114
      ],
      [
        "facilitat",
        -11.19518341724966
      ],
      [
        "0",
        -11.195728449014442
      ],
      [
        "visual",
        -11.201224298994937
      ],
      [
        "targeted",
        -11.204775703004529
      ],
      [
        "Complexity",
        -11.206443986639474
      ],
      [
        "satisfactor",
        -11.206833649101018
      ],
      [
        "Confirm",
        -11.20683364914472
      ],
      [
        "certif",
        -11.206840723511364
      ],
      [
        "Classifier",
        -11.209214421002924
      ],
      [
        "adhere",
        -11.214683524375898
      ],
      [
        "interpreter",
        -11.21609475159926
      ],
      [
        "contr",
        -11.216440724420975
      ],
      [
        "MathRefinement",
        -11.21877408971117
      ],
      [
        "Parser",
        -11.220860098764517
      ],
      [
        "find",
        -11.222252637802173
      ],
      [
        "sound",
        -11.226962987067875
      ],
      [
        "formulat",
        -11.241264062144792
      ],
      [
        "Adjust",
        -11.24301406795003
      ],
      [
        "cle",
        -11.24347580271271
      ],
      [
        "difficult",
        -11.248500315710725
      ],
      [
        "QualityC",
        -11.24850039974084
      ],
      [
        "Harness",
        -11.248500429549294
      ],
      [
        "Algebraic",
        -11.248513074009889
      ],
      [
        "Calculator",
        -11.248765512543187
      ],
      [
        "urther",
        -11.249601721498102
      ],
      [
        "deploy",
        -11.250774783945742
      ],
      [
        "terminate",
        -11.253119848261186
      ],
      [
        "cover",
        -11.253659134663447
      ],
      [
        "aceted",
        -11.25526522835521
      ],
      [
        "secondary",
        -11.257006947551146
      ],
      [
        "consolidate",
        -11.25819159567234
      ],
      [
        "merge",
        -11.263014439794588
      ],
      [
        "iable",
        -11.26938790563096
      ],
      [
        "fail",
        -11.283709750097664
      ],
      [
        "transfer",
        -11.284039892243282
      ],
      [
        "view",
        -11.291264700346506
      ],
      [
        "Categoriz",
        -11.291978576599028
      ],
      [
        "application",
        -11.291978576616046
      ],
      [
        "propel",
        -11.291981638172587
      ],
      [
        "were",
        -11.292178724074635
      ],
      [
        "_Calcul",
        -11.292724330144557
      ],
      [
        "implement",
        -11.293869013369097
      ],
      [
        "expe",
        -11.295297617442488
      ],
      [
        "emphasiz",
        -11.295506439605347
      ],
      [
        "learning",
        -11.29611441432222
      ],
      [
        "Synthesizer",
        -11.29645908042352
      ],
      [
        "universal_",
        -11.301702411601045
      ],
      [
        "gather",
        -11.303119574301949
      ],
      [
        "direction",
        -11.306426187503453
      ],
      [
        "advanced_math_",
        -11.308573758556804
      ],
      [
        "pproach",
        -11.321192238322242
      ],
      [
        "valuation",
        -11.325249985749341
      ],
      [
        "N",
        -11.330774937863566
      ],
      [
        "DetailedMath",
        -11.331594348812622
      ],
      [
        "Synthesize",
        -11.332768628944415
      ],
      [
        "adequa",
        -11.337108623302548
      ],
      [
        "effic",
        -11.337323727919147
      ],
      [
        "7",
        -11.33743312203483
      ],
      [
        "guarantee",
        -11.337433122035037
      ],
      [
        "strict",
        -11.337433158941279
      ],
      [
        "among",
        -11.33743827870472
      ],
      [
        "llm_refined_",
        -11.337913749756105
      ],
      [
        "mission",
        -11.337950566959845
      ],
      [
        "produc",
        -11.33817183126734
      ],
      [
        "etic",
        -11.343377455570891
      ],
      [
        "pdate",
        -11.347956690418783
      ],
      [
        "summariz",
        -11.35692590323147
      ],
      [
        "escalat",
        -11.35937352070868
      ],
      [
        "edge",
        -11.36443218684602
      ],
      [
        "enrich",
        -11.365378426723819
      ],
      [
        "vel",
        -11.367269440289629
      ],
      [
        "pplie",
        -11.368418371502779
      ],
      [
        "cks",
        -11.378909719483824
      ],
      [
        "emphasi",
        -11.38119476064712
      ],
      [
        "definit",
        -11.384883045466974
      ],
      [
        "coordinator",
        -11.385052169654067
      ],
      [
        "composite",
        -11.385052221852018
      ],
      [
        "accept",
        -11.385052587697041
      ],
      [
        "communication",
        -11.385100486431533
      ],
      [
        "steer",
        -11.385108102171515
      ],
      [
        "exist",
        -11.385422289654676
      ],
      [
        "mbiguity",
        -11.38686777093689
      ],
      [
        "Finalizer",
        -11.388370453823839
      ],
      [
        "revolve",
        -11.392632935788141
      ],
      [
        "llm_final_",
        -11.394241377529454
      ],
      [
        "articulat",
        -11.397630087082831
      ],
      [
        "explaine",
        -11.415727815240187
      ],
      [
        "inconsistenc",
        -11.422958268625305
      ],
      [
        "now",
        -11.424929960920858
      ],
      [
        "act",
        -11.426099013263206
      ],
      [
        "K",
        -11.435052169653877
      ],
      [
        "*",
        -11.435052169653877
      ],
      [
        "establish",
        -11.435052169654004
      ],
      [
        "General",
        -11.435052169668408
      ],
      [
        "amalgamat",
        -11.435052169984258
      ],
      [
        "eventual",
        -11.435053205764213
      ],
      [
        "manipulation",
        -11.435055055045332
      ],
      [
        "think",
        -11.43505628327957
      ],
      [
        "intense",
        -11.435057206384709
      ],
      [
        "convey",
        -11.436052476503697
      ],
      [
        "compile",
        -11.436339792205802
      ],
      [
        "tune",
        -11.439518667562316
      ],
      [
        "Reasoning",
        -11.441679850548107
      ],
      [
        "suitabl",
        -11.452033281986813
      ],
      [
        "explain",
        -11.454757261480806
      ],
      [
        "EquationSolver",
        -11.458243222374488
      ],
      [
        "ifications",
        -11.461744506654014
      ],
      [
        "ular",
        -11.468186813941072
      ],
      [
        "problem_type_",
        -11.471769628922134
      ],
      [
        "delv",
        -11.476360070286137
      ],
      [
        "lations",
        -11.477128126223949
      ],
      [
        "assembl",
        -11.477648083876044
      ],
      [
        "esign",
        -11.479677877899944
      ],
      [
        "cope",
        -11.487443802540557
      ],
      [
        "=",
        -11.487683748601246
      ],
      [
        "consensu",
        -11.487683749424235
      ],
      [
        "harmon",
        -11.487683750005097
      ],
      [
        "Delve",
        -11.487683755395636
      ],
      [
        "Basic",
        -11.487683756421973
      ],
      [
        "draft",
        -11.487694960592378
      ],
      [
        "remain",
        -11.488668701458796
      ],
      [
        "feed",
        -11.489853746469764
      ],
      [
        "recognize",
        -11.498985868382217
      ],
      [
        "Format",
        -11.500725033100112
      ],
      [
        "approve",
        -11.50328405443804
      ],
      [
        "acy",
        -11.513449538801463
      ],
      [
        "select",
        -11.525628232400368
      ],
      [
        "revis",
        -11.52872000109817
      ],
      [
        "Utiliz",
        -11.53186423878335
      ],
      [
        "prob",
        -11.535339474687044
      ],
      [
        "Reflect",
        -11.538999244409862
      ],
      [
        "target",
        -11.543066516844048
      ],
      [
        "`",
        -11.543239304156803
      ],
      [
        "decipher",
        -11.54323930415681
      ],
      [
        "unfold",
        -11.543239308857416
      ],
      [
        "finish",
        -11.543241296238289
      ],
      [
        "compe",
        -11.543252346193626
      ],
      [
        "Aggregat",
        -11.543369143265988
      ],
      [
        "adept",
        -11.543777764894804
      ],
      [
        "Specialized",
        -11.54396226698715
      ],
      [
        "preparation",
        -11.544519300132773
      ],
      [
        "derivation",
        -11.545653530496995
      ],
      [
        "Compar",
        -11.548257064117397
      ],
      [
        "complexity_",
        -11.548821988481627
      ],
      [
        "streamlin",
        -11.54958050182502
      ],
      [
        "finer",
        -11.55087680988115
      ],
      [
        "pre",
        -11.556217947329138
      ],
      [
        "algebra_solver",
        -11.558479473709014
      ],
      [
        "ssessor",
        -11.562337351536385
      ],
      [
        "deal",
        -11.564054141898
      ],
      [
        "continual",
        -11.564973041114389
      ],
      [
        "InitialAnalysis",
        -11.567999558892984
      ],
      [
        "llm_universal_",
        -11.56844185036709
      ],
      [
        "Re",
        -11.586687794349597
      ],
      [
        "discern",
        -11.589857757056928
      ],
      [
        "execut",
        -11.59069538485566
      ],
      [
        "feasib",
        -11.593927358624889
      ],
      [
        "angle",
        -11.598529670543833
      ],
      [
        "uni",
        -11.599436877391682
      ],
      [
        "position",
        -11.602051169180285
      ],
      [
        "delegate",
        -11.602062833572463
      ],
      [
        "Identifie",
        -11.602062836320616
      ],
      [
        "Preliminary",
        -11.60206336596797
      ],
      [
        "concer",
        -11.602231708515628
      ],
      [
        "Need",
        -11.602331453906242
      ],
      [
        "adequate",
        -11.602485848143376
      ],
      [
        "revised",
        -11.609929478091932
      ],
      [
        "error_",
        -11.62094629829356
      ],
      [
        "ask",
        -11.634605311215438
      ],
      [
        "SubProblemSolve",
        -11.635926308134604
      ],
      [
        "collaborat",
        -11.641375397445863
      ],
      [
        "pro",
        -11.642279952342575
      ],
      [
        "rigo",
        -11.646845644873206
      ],
      [
        "rich",
        -11.654439495768427
      ],
      [
        "Analytical",
        -11.655965706344908
      ],
      [
        "routin",
        -11.6579879297278
      ],
      [
        "face",
        -11.65817638318303
      ],
      [
        "nnovative",
        -11.659052905552503
      ],
      [
        "ambigu",
        -11.661486917397344
      ],
      [
        "power",
        -11.663008713150855
      ],
      [
        "_Problem_",
        -11.663809352538184
      ],
      [
        "olistic",
        -11.664278895589328
      ],
      [
        "arrive",
        -11.664399685474864
      ],
      [
        "–",
        -11.664562833568574
      ],
      [
        "Direct",
        -11.664562833918803
      ],
      [
        "Tackle",
        -11.664562834190901
      ],
      [
        "coordinate",
        -11.664562835852927
      ],
      [
        "Expand",
        -11.664563142212916
      ],
      [
        "Improve",
        -11.664564714401195
      ],
      [
        "prediction",
        -11.66459262650781
      ],
      [
        "Revise",
        -11.664657953120503
      ],
      [
        "encourag",
        -11.664988305859673
      ],
      [
        "solution_valid",
        -11.665177640643964
      ],
      [
        "Maker",
        -11.666848124537093
      ],
      [
        "representation",
        -11.67348710962583
      ],
      [
        "reroute",
        -11.67395402407363
      ],
      [
        "hypothes",
        -11.695860017328517
      ],
      [
        "IterativeRefine",
        -11.700746801157766
      ],
      [
        "gment",
        -11.701590445997066
      ],
      [
        "problem_refine",
        -11.701762866488693
      ],
      [
        "escalate",
        -11.702110966356424
      ],
      [
        "compli",
        -11.704418903507102
      ],
      [
        "define",
        -11.70448614006905
      ],
      [
        "consolidat",
        -11.715629047833374
      ],
      [
        "recogniz",
        -11.717435631649145
      ],
      [
        "div",
        -11.718064645205953
      ],
      [
        "rowe",
        -11.71963164444749
      ],
      [
        "_deep_refinement",
        -11.719741673855742
      ],
      [
        "kicks",
        -11.724176256364865
      ],
      [
        "Finalize",
        -11.726598219440108
      ],
      [
        "road",
        -11.72939095022329
      ],
      [
        "8",
        -11.73122950023525
      ],
      [
        "succinct",
        -11.731229500248036
      ],
      [
        "Critical",
        -11.731229500284286
      ],
      [
        "ligent",
        -11.73122951284577
      ],
      [
        "dispatche",
        -11.731229514610586
      ],
      [
        "AMS",
        -11.731231546076398
      ],
      [
        "Proof",
        -11.731239003815976
      ],
      [
        "help",
        -11.731240031176167
      ],
      [
        "exploratory",
        -11.731248270596314
      ],
      [
        "Superior",
        -11.731249978472865
      ],
      [
        "whol",
        -11.731260033934955
      ],
      [
        "provision",
        -11.731264900471022
      ],
      [
        "Incorporate",
        -11.731685392916598
      ],
      [
        "reduce",
        -11.732464069532245
      ],
      [
        "Assessment",
        -11.734379141606968
      ],
      [
        "versa",
        -11.738278151367206
      ],
      [
        "traverse",
        -11.739021229229888
      ],
      [
        "once",
        -11.74980168282444
      ],
      [
        "ver",
        -11.752255800825314
      ],
      [
        "ComputeLLM",
        -11.752331653668996
      ],
      [
        "Processor",
        -11.753174941649892
      ],
      [
        "ourse",
        -11.760188059470847
      ],
      [
        "implification",
        -11.764168535760923
      ],
      [
        "tactic",
        -11.767598462738828
      ],
      [
        "_refinement_and_",
        -11.76933341969414
      ],
      [
        "universal_solver",
        -11.771724559068597
      ],
      [
        "ence",
        -11.771888253248473
      ],
      [
        "k",
        -11.773893393986112
      ],
      [
        "elegan",
        -11.774268973270273
      ],
      [
        "rol",
        -11.777280753622472
      ],
      [
        "Sub",
        -11.78531151884981
      ],
      [
        "LLM_math_",
        -11.794193379726934
      ],
      [
        "tions",
        -11.796348671159361
      ],
      [
        "navigat",
        -11.796815341966472
      ],
      [
        "cogniti",
        -11.798926988681654
      ],
      [
        "Initiati",
        -11.79976768549939
      ],
      [
        "known",
        -11.80263497856675
      ],
      [
        "Super",
        -11.802636087246114
      ],
      [
        "9",
        -11.80265807166384
      ],
      [
        "intuitive",
        -11.802658074183732
      ],
      [
        "persist",
        -11.802658167059189
      ],
      [
        "custom",
        -11.802658233900523
      ],
      [
        "yield",
        -11.802658254196027
      ],
      [
        "theoretical",
        -11.802662109687827
      ],
      [
        "even",
        -11.803831569168176
      ],
      [
        "incom",
        -11.803834985497929
      ],
      [
        "regard",
        -11.804234339554394
      ],
      [
        "multif",
        -11.804493634944627
      ],
      [
        "contextualize",
        -11.805103527456208
      ],
      [
        "untangl",
        -11.80700517266362
      ],
      [
        "integrative",
        -11.80704279880814
      ],
      [
        "DeepAnalysis",
        -11.811372534883592
      ],
      [
        "orchestrat",
        -11.823816191047193
      ],
      [
        "continu",
        -11.827424548851962
      ],
      [
        "eflector",
        -11.830530830608815
      ],
      [
        "olution_verifier",
        -11.832587086234286
      ],
      [
        "alized",
        -11.835479066620282
      ],
      [
        "expande",
        -11.837580740975135
      ],
      [
        "aggregat",
        -11.842114235638986
      ],
      [
        "posed",
        -11.84968846251759
      ],
      [
        "Leverag",
        -11.866299892927067
      ],
      [
        "embrac",
        -11.866995562565874
      ],
      [
        "edicated",
        -11.871507528311723
      ],
      [
        "capa",
        -11.873024562023943
      ],
      [
        "Classifie",
        -11.874933032403082
      ],
      [
        "term",
        -11.878571509891897
      ],
      [
        "apitaliz",
        -11.87888260515428
      ],
      [
        "acknowledg",
        -11.879581148587251
      ],
      [
        "Emphasize",
        -11.879581148587455
      ],
      [
        "protocol",
        -11.879581148607643
      ],
      [
        "Divide",
        -11.879581149205444
      ],
      [
        "introspecti",
        -11.87958116235669
      ],
      [
        "showcas",
        -11.87958118681251
      ],
      [
        "signify",
        -11.87958119716546
      ],
      [
        "qualif",
        -11.879620350774323
      ],
      [
        "intervention",
        -11.879629703744346
      ],
      [
        "Efficient",
        -11.879696162132245
      ],
      [
        "discover",
        -11.879793137223517
      ],
      [
        "historical",
        -11.87980512648303
      ],
      [
        "llm_detailed_",
        -11.880095899473787
      ],
      [
        "swift",
        -11.880471267776997
      ],
      [
        "generat",
        -11.880762157650057
      ],
      [
        "Breakdown",
        -11.881687202732149
      ],
      [
        "_reevaluat",
        -11.881801415903148
      ],
      [
        "ized",
        -11.882267142462249
      ],
      [
        "fulfil",
        -11.883364197298187
      ],
      [
        "typ",
        -11.884185863567959
      ],
      [
        "rigor",
        -11.885554038023267
      ],
      [
        "converge",
        -11.885935180554476
      ],
      [
        "num",
        -11.88659134672433
      ],
      [
        "achin",
        -11.894943392327736
      ],
      [
        "initializ",
        -11.89952945867471
      ],
      [
        "refer",
        -11.905151041572378
      ],
      [
        "hypothesis",
        -11.905209006264492
      ],
      [
        "Assess",
        -11.90728057524182
      ],
      [
        "Insight",
        -11.920225336301478
      ],
      [
        "reinterprete",
        -11.926389454024587
      ],
      [
        "reanalyze",
        -11.934767926407185
      ],
      [
        "_problem_solver",
        -11.935416351159715
      ],
      [
        "ious",
        -11.936839559205053
      ],
      [
        "bring",
        -11.939202412858881
      ],
      [
        "approved",
        -11.939455005915637
      ],
      [
        "mbark",
        -11.951437783942954
      ],
      [
        "accessib",
        -11.95200109178463
      ],
      [
        "share",
        -11.956083456856618
      ],
      [
        "fac",
        -11.958408249559099
      ],
      [
        "ject",
        -11.95841203243766
      ],
      [
        "interven",
        -11.962867686706417
      ],
      [
        "ccur",
        -11.962908413073274
      ],
      [
        "Clarify",
        -11.96291448193349
      ],
      [
        "unpack",
        -11.96291448513303
      ],
      [
        "Merg",
        -11.9629147073149
      ],
      [
        "major",
        -11.962917673140394
      ],
      [
        "uncover",
        -11.962961577220607
      ],
      [
        "wide",
        -11.962963496462416
      ],
      [
        "deco",
        -11.963110012644583
      ],
      [
        "balance",
        -11.963184063954447
      ],
      [
        "maximize",
        -11.963190711217399
      ],
      [
        "llm_optimized_",
        -11.963498791867115
      ],
      [
        "assist",
        -11.963661922225326
      ],
      [
        "Deal",
        -11.964069979026828
      ],
      [
        "MathSolverStep",
        -11.966725465335271
      ],
      [
        "Formulate",
        -11.968497084080093
      ],
      [
        "ProblemRefiner",
        -11.971538619564651
      ],
      [
        "delineate",
        -11.971801314114694
      ],
      [
        "direct_solution_",
        -11.983523714044939
      ],
      [
        "describ",
        -11.98385221878366
      ],
      [
        "flexib",
        -11.984898807793906
      ],
      [
        "Us",
        -11.989283447419492
      ],
      [
        "complex_problem",
        -11.99012207985302
      ],
      [
        "ound",
        -11.996323519124935
      ],
      [
        "aggregate",
        -12.005340826967418
      ],
      [
        "Focus",
        -12.009092825474085
      ],
      [
        "fuse",
        -12.010048570787161
      ],
      [
        "Par",
        -12.011937514656205
      ],
      [
        "contributi",
        -12.015285646302136
      ],
      [
        "ical",
        -12.019803600305606
      ],
      [
        "annot",
        -12.024273968160685
      ],
      [
        "solution_optimiz",
        -12.028722191884329
      ],
      [
        "hecker",
        -12.031390344994254
      ],
      [
        "combined_solver",
        -12.038526261458067
      ],
      [
        "stic",
        -12.043292196908958
      ],
      [
        "bypass",
        -12.04335000426816
      ],
      [
        "mpower",
        -12.044555822126371
      ],
      [
        "and_verification",
        -12.04603996065202
      ],
      [
        "crete",
        -12.049401318473254
      ],
      [
        "dict",
        -12.050440159968552
      ],
      [
        "ssistan",
        -12.053574660747975
      ],
      [
        "creat",
        -12.053730765267423
      ],
      [
        "section",
        -12.053800146700562
      ],
      [
        "Assemble",
        -12.05382357331251
      ],
      [
        "quisite",
        -12.053823578839342
      ],
      [
        "Compound",
        -12.053824586652757
      ],
      [
        "search",
        -12.053828643454313
      ],
      [
        "transparen",
        -12.05384132771677
      ],
      [
        "unknown",
        -12.053853615198626
      ],
      [
        "cyclic",
        -12.05386516941615
      ],
      [
        "late",
        -12.054343111178714
      ],
      [
        "MathAnalysis",
        -12.056277085557971
      ],
      [
        "xtended",
        -12.061103175607279
      ],
      [
        "strive",
        -12.061374594460688
      ],
      [
        "strong",
        -12.061722677211446
      ],
      [
        "evolv",
        -12.063315678387964
      ],
      [
        "imal",
        -12.06361404569755
      ],
      [
        "cas",
        -12.065140154400062
      ],
      [
        "ProblemAnalyzer",
        -12.067850538640279
      ],
      [
        "innovati",
        -12.068027883461992
      ],
      [
        "terminat",
        -12.068041172923735
      ],
      [
        "recalculation",
        -12.070123794339949
      ],
      [
        "specific_solver",
        -12.074270854573932
      ],
      [
        "mode",
        -12.078503898438353
      ],
      [
        "pans",
        -12.079922837339359
      ],
      [
        "communicat",
        -12.08428498608455
      ],
      [
        "ternal",
        -12.100966814787302
      ],
      [
        "_verification_",
        -12.102949405127909
      ],
      [
        "math_problem_",
        -12.103030035874042
      ],
      [
        "he",
        -12.10531694749815
      ],
      [
        "geometry_solver",
        -12.111872246928543
      ],
      [
        "kickstart",
        -12.114818456204404
      ],
      [
        "differentiat",
        -12.116180266487934
      ],
      [
        "evised",
        -12.118483230623811
      ],
      [
        "flexibl",
        -12.127848832736808
      ],
      [
        "Reevaluat",
        -12.128190943916938
      ],
      [
        "MathRefiner",
        -12.13847810742216
      ],
      [
        "travers",
        -12.142054556203096
      ],
      [
        "Adapt",
        -12.144235377929292
      ],
      [
        "illustrati",
        -12.144834794244677
      ],
      [
        "evelop",
        -12.145035883953561
      ],
      [
        "Generate",
        -12.145501130527546
      ],
      [
        "Th",
        -12.148026655759795
      ],
      [
        "Synthe",
        -12.148444661938326
      ],
      [
        "categori",
        -12.149926913628232
      ],
      [
        "preliminar",
        -12.151640054198529
      ],
      [
        "Proce",
        -12.152293923307322
      ],
      [
        "istorical",
        -12.153529871601801
      ],
      [
        "discuss",
        -12.15371771272713
      ],
      [
        "Multi",
        -12.153823573121148
      ],
      [
        "Sequential",
        -12.153823573474872
      ],
      [
        "Address",
        -12.153823646157555
      ],
      [
        "DepthMath",
        -12.15382367031841
      ],
      [
        "deduction",
        -12.153823876648485
      ],
      [
        "intensifie",
        -12.15382387916325
      ],
      [
        "Cross",
        -12.153825427484204
      ],
      [
        "proposition",
        -12.153839600463732
      ],
      [
        "Fallback",
        -12.153843168146969
      ],
      [
        "report",
        -12.153847018465315
      ],
      [
        "capture",
        -12.153849262414758
      ],
      [
        "modify",
        -12.15387224922219
      ],
      [
        "_Problem_S",
        -12.154352197128365
      ],
      [
        "match",
        -12.154945396535684
      ],
      [
        "adaptation",
        -12.155249958757544
      ],
      [
        "reconsideration",
        -12.15584599185724
      ],
      [
        "drill",
        -12.156121599806985
      ],
      [
        "calculus_solver",
        -12.158948891467679
      ],
      [
        "partially",
        -12.159152323380502
      ],
      [
        "SolutionF",
        -12.15950389987855
      ],
      [
        "Results_",
        -12.160995217591365
      ],
      [
        "significant",
        -12.161630680734232
      ],
      [
        "wh",
        -12.163419708498024
      ],
      [
        "Statistics",
        -12.165358001856461
      ],
      [
        "utcome",
        -12.167719262813648
      ],
      [
        "On",
        -12.17307784000841
      ],
      [
        "referr",
        -12.174862680013018
      ],
      [
        "onvert",
        -12.176535547147498
      ],
      [
        "emerge",
        -12.185936369002572
      ],
      [
        "used",
        -12.190726690899107
      ],
      [
        "SolverCombined",
        -12.190820292604473
      ],
      [
        "robability",
        -12.195048825419175
      ],
      [
        "ematical",
        -12.206952646695377
      ],
      [
        "ounded",
        -12.207659703080695
      ],
      [
        "problem_solver",
        -12.221450329814832
      ],
      [
        "_concept_",
        -12.225699719518014
      ],
      [
        "hybrid_solver",
        -12.22599181712317
      ],
      [
        "still",
        -12.22716355168919
      ],
      [
        "orchestrate",
        -12.232245996868329
      ],
      [
        "M",
        -12.234328416870017
      ],
      [
        "conve",
        -12.24246943761754
      ],
      [
        "probabili",
        -12.243912068873053
      ],
      [
        "simple_problem",
        -12.253618517305739
      ],
      [
        "Solv",
        -12.253670002473847
      ],
      [
        "ption",
        -12.257067710645469
      ],
      [
        "Of",
        -12.259977618703765
      ],
      [
        "Clarifie",
        -12.260283452191642
      ],
      [
        "pply",
        -12.260962977441414
      ],
      [
        "prim",
        -12.263907033532828
      ],
      [
        "qu",
        -12.264386987514882
      ],
      [
        "ypothesis",
        -12.264641141968475
      ],
      [
        "transit",
        -12.264836929902913
      ],
      [
        "Quick",
        -12.264934684092458
      ],
      [
        "amplify",
        -12.264934684326041
      ],
      [
        "specify",
        -12.264934686885919
      ],
      [
        "diagram",
        -12.26493472171631
      ],
      [
        "carry",
        -12.264934774252536
      ],
      [
        "Inherit",
        -12.264934788323934
      ],
      [
        "Collaborat",
        -12.264934905579523
      ],
      [
        "substantia",
        -12.264935535943186
      ],
      [
        "Move",
        -12.264936357919584
      ],
      [
        "conceptualize",
        -12.264940600764564
      ],
      [
        "proper",
        -12.264940930994925
      ],
      [
        "llm_conceptual_",
        -12.264951597606087
      ],
      [
        "assum",
        -12.264953317528931
      ],
      [
        "inferenc",
        -12.265528448645822
      ],
      [
        "Creat",
        -12.265772458295121
      ],
      [
        "Loop",
        -12.265789886182697
      ],
      [
        "Explore",
        -12.265932459562606
      ],
      [
        "constructive",
        -12.266831175350614
      ],
      [
        "Conclusi",
        -12.267884685135023
      ],
      [
        "observe",
        -12.269407059838802
      ],
      [
        "range",
        -12.273817560498031
      ],
      [
        "evaluator",
        -12.278821375442503
      ],
      [
        "man",
        -12.282677091392753
      ],
      [
        "AnalyticalSolver",
        -12.285235802062935
      ],
      [
        "past",
        -12.286661123326324
      ],
      [
        "llustration",
        -12.289953537037835
      ],
      [
        "icks",
        -12.292571811865729
      ],
      [
        "_alternative_",
        -12.29468992912381
      ],
      [
        "compose",
        -12.302991239628565
      ],
      [
        "No",
        -12.31118291505653
      ],
      [
        "ired",
        -12.324726804041665
      ],
      [
        "tional",
        -12.325266399523358
      ],
      [
        "insp",
        -12.33158671424222
      ],
      [
        "rofound",
        -12.335740785924045
      ],
      [
        "disassemble",
        -12.351905612491208
      ],
      [
        "ll",
        -12.358868686480731
      ],
      [
        "structur",
        -12.361384308052925
      ],
      [
        "ssesse",
        -12.362481401394675
      ],
      [
        "reformulat",
        -12.366770818839345
      ],
      [
        "ifferentiate",
        -12.377587928050245
      ],
      [
        "quip",
        -12.378689129581158
      ],
      [
        "iagnos",
        -12.380970159340285
      ],
      [
        "mplement",
        -12.38439566830459
      ],
      [
        "Make",
        -12.385264587842437
      ],
      [
        "numeric",
        -12.385337217709528
      ],
      [
        "teration",
        -12.386170799340606
      ],
      [
        "adopt",
        -12.387604751177975
      ],
      [
        "gregate",
        -12.389561538020613
      ],
      [
        "trigonometr",
        -12.389747678884827
      ],
      [
        "counter",
        -12.389765961874575
      ],
      [
        "propagate",
        -12.38993468836994
      ],
      [
        "Decide",
        -12.38993478712823
      ],
      [
        "endeavor",
        -12.389934806031631
      ],
      [
        "ebugg",
        -12.389935205245
      ],
      [
        "avenue",
        -12.38993562915939
      ],
      [
        "Graphical",
        -12.389935938068007
      ],
      [
        "document",
        -12.389938015929523
      ],
      [
        "foster",
        -12.389939042972667
      ],
      [
        "reinforc",
        -12.389939244104172
      ],
      [
        "dimension",
        -12.38994689810755
      ],
      [
        "solidify",
        -12.389951741592954
      ],
      [
        "linear",
        -12.389983987294968
      ],
      [
        "exact",
        -12.389999248816155
      ],
      [
        "Option",
        -12.390052189641361
      ],
      [
        "Data",
        -12.390124230280184
      ],
      [
        "More",
        -12.390463274133104
      ],
      [
        "head",
        -12.390935109114919
      ],
      [
        "ambitio",
        -12.39404437830804
      ],
      [
        "sufficient",
        -12.394075900544815
      ],
      [
        "checker",
        -12.399323929277987
      ],
      [
        "LLM_final_",
        -12.401435496399303
      ],
      [
        "defin",
        -12.406198337393144
      ],
      [
        "declare",
        -12.40709343776641
      ],
      [
        "transmitt",
        -12.413600682987918
      ],
      [
        "Formulat",
        -12.418815841060418
      ],
      [
        "backup",
        -12.42261178525657
      ],
      [
        "subse",
        -12.427143290276753
      ],
      [
        "devis",
        -12.428262976334057
      ],
      [
        "varie",
        -12.432845786879314
      ],
      [
        "ProblemAnalysis",
        -12.435538212577624
      ],
      [
        "directive",
        -12.440580165078595
      ],
      [
        "light",
        -12.442236429274947
      ],
      [
        "complicat",
        -12.443839006261275
      ],
      [
        "esentation",
        -12.447346243199076
      ],
      [
        "EnhancedPr",
        -12.4485147815006
      ],
      [
        "allocat",
        -12.466066333933275
      ],
      [
        "Analyse",
        -12.486075057608508
      ],
      [
        "Comput",
        -12.486999380446607
      ],
      [
        "ntegrated_solver",
        -12.48790165787763
      ],
      [
        "Feedback_Loop",
        -12.492861083976718
      ],
      [
        "}')",
        -12.499047097759409
      ],
      [
        "Table",
        -12.500001073544825
      ],
      [
        "vers",
        -12.50049978677163
      ],
      [
        "sual",
        -12.502319373692893
      ],
      [
        "llm",
        -12.503702338704459
      ],
      [
        "com",
        -12.510365861456174
      ],
      [
        "Illustrat",
        -12.51387875675834
      ],
      [
        "Reason",
        -12.51578611709928
      ],
      [
        "pushe",
        -12.518475828117852
      ],
      [
        "xamine",
        -12.521582249016864
      ],
      [
        "striv",
        -12.521608111385373
      ],
      [
        "eploy",
        -12.524627077135124
      ],
      [
        "Detail",
        -12.52768338379715
      ],
      [
        "final_solution",
        -12.528973267828967
      ],
      [
        "wrap",
        -12.529527349979379
      ],
      [
        "low",
        -12.529622685594651
      ],
      [
        "rang",
        -12.529782614929898
      ],
      [
        "otential",
        -12.529826221412938
      ],
      [
        "arallel",
        -12.52986351832991
      ],
      [
        "embod",
        -12.530496305173257
      ],
      [
        "_computation_",
        -12.530799986474735
      ],
      [
        "daptive",
        -12.531715728329626
      ],
      [
        "Second",
        -12.532102174424212
      ],
      [
        "recei",
        -12.53261785528195
      ],
      [
        "explanat",
        -12.532694991964094
      ],
      [
        "solid",
        -12.532787766122295
      ],
      [
        "Experience",
        -12.532791826810364
      ],
      [
        "Evaluator",
        -12.53279182681117
      ],
      [
        "Contribut",
        -12.532791826836668
      ],
      [
        "characteri",
        -12.532791826837181
      ],
      [
        "Operation",
        -12.532791827701903
      ],
      [
        "warrant",
        -12.532791828877968
      ],
      [
        "heighten",
        -12.53279196982538
      ],
      [
        "deliberat",
        -12.532791983219397
      ],
      [
        "correspond",
        -12.532792505535468
      ],
      [
        "satisfie",
        -12.532793135742553
      ],
      [
        "inherent",
        -12.532795924042453
      ],
      [
        "Accumulator",
        -12.532823361282105
      ],
      [
        "ticate",
        -12.53292474259992
      ],
      [
        "oversight",
        -12.532975049155255
      ],
      [
        "arrang",
        -12.533007957086514
      ],
      [
        "eces",
        -12.533054555888194
      ],
      [
        "common",
        -12.533188988236963
      ],
      [
        "deconstruction",
        -12.533339385995138
      ],
      [
        "left",
        -12.533622255094087
      ],
      [
        "promot",
        -12.533852562558932
      ],
      [
        "llm_enhanced_",
        -12.534184728277975
      ],
      [
        "exceptional",
        -12.534314863329604
      ],
      [
        "nstruction",
        -12.53448048962016
      ],
      [
        "Detection",
        -12.534952652526574
      ],
      [
        "mistake",
        -12.535415574034138
      ],
      [
        "recalculat",
        -12.535983813838294
      ],
      [
        "Complete",
        -12.539411918403996
      ],
      [
        "side",
        -12.5398502701581
      ],
      [
        "iscrete",
        -12.539991122801386
      ],
      [
        "continui",
        -12.544133047608131
      ],
      [
        "lay",
        -12.550150663966864
      ],
      [
        "xploration",
        -12.550629741923288
      ],
      [
        "embrace",
        -12.557413080402682
      ],
      [
        "ever",
        -12.56223731249878
      ],
      [
        "riche",
        -12.562945798568245
      ],
      [
        "bas",
        -12.565024195117072
      ],
      [
        "hypothesi",
        -12.565306170868226
      ],
      [
        "eeding",
        -12.57036709590715
      ],
      [
        "rbo",
        -12.570989526606816
      ],
      [
        "pred",
        -12.579112419451482
      ],
      [
        "ified",
        -12.597793703952112
      ],
      [
        "tact",
        -12.597854662463678
      ],
      [
        "recheck",
        -12.603217445236396
      ],
      [
        "tory",
        -12.608246969261268
      ],
      [
        "origin",
        -12.60951031451123
      ],
      [
        "Insights",
        -12.61561321868991
      ],
      [
        "ssembly",
        -12.618734766668162
      ],
      [
        "lines",
        -12.624213319844644
      ],
      [
        "treat",
        -12.630414044666058
      ],
      [
        "come",
        -12.640970478462542
      ],
      [
        "trigonometric",
        -12.655314058920387
      ],
      [
        "atch",
        -12.657362141643222
      ],
      [
        "solution_refine",
        -12.664670901981697
      ],
      [
        "pla",
        -12.667136152162781
      ],
      [
        "formula",
        -12.66799089962442
      ],
      [
        "transmit",
        -12.66810048703869
      ],
      [
        "declar",
        -12.676621973909578
      ],
      [
        "eaning",
        -12.677113562674794
      ],
      [
        "avigate",
        -12.684043318614666
      ],
      [
        "output_solution",
        -12.688286388654529
      ],
      [
        "Analytic",
        -12.69274640510769
      ],
      [
        "descri",
        -12.693029713608277
      ],
      [
        "learn",
        -12.69310986771219
      ],
      [
        "ProblemAssess",
        -12.69686990153128
      ],
      [
        "Comb",
        -12.697009747826307
      ],
      [
        "functional",
        -12.697286742828597
      ],
      [
        "numer",
        -12.698487340740002
      ],
      [
        "fier",
        -12.698785048080392
      ],
      [
        "ception",
        -12.699303714719099
      ],
      [
        "broade",
        -12.699324735615567
      ],
      [
        "approximat",
        -12.699352121535865
      ],
      [
        "V",
        -12.699458053837196
      ],
      [
        "Quali",
        -12.69945814202924
      ],
      [
        "Conduct",
        -12.69945849365123
      ],
      [
        "separate",
        -12.699458495578481
      ],
      [
        "Identify",
        -12.699458499469952
      ],
      [
        "support",
        -12.69945851380092
      ],
      [
        "filter",
        -12.699458516695202
      ],
      [
        "Attempt",
        -12.699458685104263
      ],
      [
        "Unified",
        -12.699458840898846
      ],
      [
        "global",
        -12.699460462558042
      ],
      [
        "diverge",
        -12.6994622299185
      ],
      [
        "resolut",
        -12.699466455221847
      ],
      [
        "Prelim",
        -12.699469461514976
      ],
      [
        "gramm",
        -12.699476488349827
      ],
      [
        "approximation",
        -12.69956487674393
      ],
      [
        "divid",
        -12.699587230929565
      ],
      [
        "gesti",
        -12.699589092472038
      ],
      [
        "discussion",
        -12.699642084671968
      ],
      [
        "SolutionStrategy",
        -12.699667068142414
      ],
      [
        "summa",
        -12.69971349486678
      ],
      [
        "pursu",
        -12.699716443397099
      ],
      [
        "ravel",
        -12.699780124507857
      ],
      [
        "articulation",
        -12.699813358601803
      ],
      [
        "Cap",
        -12.70018149066612
      ],
      [
        "advancement",
        -12.700319077892063
      ],
      [
        "llm_dynamic_",
        -12.700416946544259
      ],
      [
        "fide",
        -12.700646698516586
      ],
      [
        "intent",
        -12.700711284318157
      ],
      [
        "differential",
        -12.701475302122661
      ],
      [
        "specialization",
        -12.701940183892164
      ],
      [
        "center",
        -12.70224334358807
      ],
      [
        "sync",
        -12.702288954660883
      ],
      [
        "roblemParser",
        -12.702603361667531
      ],
      [
        "Task",
        -12.703616954292617
      ],
      [
        "display",
        -12.703698680162471
      ],
      [
        "ntegration",
        -12.704670806853546
      ],
      [
        "_hybrid_solver",
        -12.704899476928473
      ],
      [
        "_analysis_and_",
        -12.705484577711681
      ],
      [
        "djustment",
        -12.706641222407404
      ],
      [
        "llm_specialized_",
        -12.707214406340038
      ],
      [
        "close",
        -12.707244846896407
      ],
      [
        "compare",
        -12.707287446420684
      ],
      [
        "Assembly",
        -12.709498255052528
      ],
      [
        "Optimized_",
        -12.710011230119624
      ],
      [
        "activit",
        -12.711618119184829
      ],
      [
        "creativity",
        -12.712409048745803
      ],
      [
        "outlin",
        -12.713016898864307
      ],
      [
        "Reflector",
        -12.713141521798654
      ],
      [
        "force",
        -12.71342514963617
      ],
      [
        "comm",
        -12.71430460042762
      ],
      [
        "restructur",
        -12.716674578587938
      ],
      [
        "_iteration_",
        -12.722143966273212
      ],
      [
        "direct_solution",
        -12.72574883466536
      ],
      [
        "imp",
        -12.728508568364198
      ],
      [
        "dimen",
        -12.735083979673954
      ],
      [
        "lity",
        -12.740970130701001
      ],
      [
        "incl",
        -12.746979447510657
      ],
      [
        "encapsulat",
        -12.75125633356145
      ],
      [
        "problemPars",
        -12.762744795477396
      ],
      [
        "LLM_math_solver_",
        -12.76611111955676
      ],
      [
        "concept_",
        -12.766881530629835
      ],
      [
        "med",
        -12.769312402484298
      ],
      [
        "solution_review",
        -12.771783187324838
      ],
      [
        "adjust_",
        -12.778004083720068
      ],
      [
        "line",
        -12.788093609079368
      ],
      [
        "tactical",
        -12.791220032210292
      ],
      [
        "reiterat",
        -12.79454041784001
      ],
      [
        "nput",
        -12.808089344603644
      ],
      [
        "modifi",
        -12.812327308756156
      ],
      [
        "Con",
        -12.83695344864216
      ],
      [
        "miss",
        -12.837871699757327
      ],
      [
        "complet",
        -12.83868371872718
      ],
      [
        "Parsing",
        -12.838812931630985
      ],
      [
        "manag",
        -12.842296880206064
      ],
      [
        "peculati",
        -12.84271279682492
      ],
      [
        "G",
        -12.84799069876839
      ],
      [
        "rained",
        -12.852825283499406
      ],
      [
        "adher",
        -12.858649785460209
      ],
      [
        "llocate",
        -12.861829272265274
      ],
      [
        "info",
        -12.86949863672459
      ],
      [
        "certain",
        -12.869797334734367
      ],
      [
        "horough",
        -12.869839030285682
      ],
      [
        "ailor",
        -12.870485194934883
      ],
      [
        "ell",
        -12.873950494471327
      ],
      [
        "comprehen",
        -12.874196442135732
      ],
      [
        "LLM_Solver_",
        -12.880873677559789
      ],
      [
        "LLM_Initial",
        -12.88467615713229
      ],
      [
        "eeds",
        -12.884801501752968
      ],
      [
        "needs_more_",
        -12.885163177014991
      ],
      [
        "ional",
        -12.887067209442279
      ],
      [
        "cycl",
        -12.887429761876472
      ],
      [
        "pulate",
        -12.88779881156545
      ],
      [
        "serv",
        -12.888128788917658
      ],
      [
        "elevat",
        -12.888191181559765
      ],
      [
        "ambit",
        -12.892553712794138
      ],
      [
        "symbol",
        -12.893236032316576
      ],
      [
        "nterconnect",
        -12.894133238890245
      ],
      [
        "Introduce",
        -12.894662505247467
      ],
      [
        "elevan",
        -12.894836103013297
      ],
      [
        "egard",
        -12.895604193978988
      ],
      [
        "rational",
        -12.896007045746542
      ],
      [
        "tivity",
        -12.897334011666846
      ],
      [
        "obust",
        -12.897481591723583
      ],
      [
        "ertain",
        -12.898879661359336
      ],
      [
        "ditional",
        -12.899325360744127
      ],
      [
        "predict",
        -12.89937884559434
      ],
      [
        "super",
        -12.8994407624527
      ],
      [
        "roubleshooting",
        -12.899458493477153
      ],
      [
        "Dynamic",
        -12.899458493478074
      ],
      [
        "distinguish",
        -12.8994584935328
      ],
      [
        "similar",
        -12.899458493548229
      ],
      [
        "tweak",
        -12.89945851497961
      ],
      [
        "Summarize",
        -12.899458617418865
      ],
      [
        "prioritiz",
        -12.899458636472026
      ],
      [
        "benefit",
        -12.899458717472148
      ],
      [
        "xample",
        -12.899458757759152
      ],
      [
        "inherit",
        -12.89945899036519
      ],
      [
        "assumption",
        -12.899469379129032
      ],
      [
        "cross_over_",
        -12.899474404547234
      ],
      [
        "instant",
        -12.899495755748159
      ],
      [
        "resource",
        -12.899506848857639
      ],
      [
        "rectif",
        -12.89975481038805
      ],
      [
        "ccumulat",
        -12.899888334094287
      ],
      [
        "Profound",
        -12.8999310336366
      ],
      [
        "cate",
        -12.89999363857689
      ],
      [
        "bridge",
        -12.900032627358165
      ],
      [
        "deduce",
        -12.900757043399501
      ],
      [
        "excellen",
        -12.901086031811285
      ],
      [
        "grap",
        -12.902771945900575
      ],
      [
        "embody",
        -12.90296977270048
      ],
      [
        "wrapp",
        -12.904241579099933
      ],
      [
        "Introduc",
        -12.90428314930348
      ],
      [
        "eline",
        -12.904525207604541
      ],
      [
        "symboli",
        -12.90506455012106
      ],
      [
        "along",
        -12.906846238133511
      ],
      [
        "judge",
        -12.909436299661351
      ],
      [
        "full",
        -12.909969549137609
      ],
      [
        "diagnos",
        -12.914588050505374
      ],
      [
        "twin",
        -12.918052255109137
      ],
      [
        "operative",
        -12.918602038837706
      ],
      [
        "atory",
        -12.92164316105057
      ],
      [
        "DualHybrid",
        -12.921788032473739
      ],
      [
        "solution_assembl",
        -12.925697457147804
      ],
      [
        "solution_not_",
        -12.927865928279406
      ],
      [
        "ensi",
        -12.92968552425081
      ],
      [
        "Reevaluate",
        -12.930467503991762
      ],
      [
        "activat",
        -12.934609941149816
      ],
      [
        "ynergize",
        -12.935384036480965
      ],
      [
        "Leverage",
        -12.93716547887001
      ],
      [
        "reac",
        -12.939201778818834
      ],
      [
        "nize",
        -12.940598736693083
      ],
      [
        "ronge",
        -12.94213348171893
      ],
      [
        "math_analysis_",
        -12.943585072848107
      ],
      [
        "tify",
        -12.94639497659566
      ],
      [
        "_advanced_",
        -12.952251780640056
      ],
      [
        "Gra",
        -12.953706941605859
      ],
      [
        "ub_problem_solve",
        -12.955403942241498
      ],
      [
        "synergi",
        -12.962340328106599
      ],
      [
        "initial_solution",
        -12.962426323176045
      ],
      [
        "interr",
        -12.96310521362771
      ],
      [
        "optim",
        -12.963882510792546
      ],
      [
        "Rea",
        -12.967992885748835
      ],
      [
        "Out",
        -12.970269871687286
      ],
      [
        "ained",
        -12.974763780131495
      ],
      [
        "ame",
        -12.978672914144722
      ],
      [
        "Select",
        -12.98925923815094
      ],
      [
        "standing",
        -12.99851632104174
      ],
      [
        "assure",
        -12.999467328543169
      ],
      [
        "FinalSolver",
        -13.00183519446883
      ],
      [
        "assemble",
        -13.011027561759757
      ],
      [
        "ication",
        -13.014964777084895
      ],
      [
        "expand",
        -13.028506311924964
      ],
      [
        "gra",
        -13.031881483513981
      ],
      [
        "simplification_",
        -13.033107995959718
      ],
      [
        "maximal",
        -13.039279079597085
      ],
      [
        "ency",
        -13.040929867959187
      ],
      [
        "ded",
        -13.048415589462625
      ],
      [
        "own",
        -13.076998222041638
      ],
      [
        "subst",
        -13.078248658507592
      ],
      [
        "scrutiniz",
        -13.083723119146292
      ],
      [
        "intelligen",
        -13.120021552570726
      ],
      [
        "combined_",
        -13.121811772978921
      ],
      [
        "error_detect",
        -13.131432046211739
      ],
      [
        "nhancement",
        -13.131674919071916
      ],
      [
        "judg",
        -13.136807788452083
      ],
      [
        "Combin",
        -13.136895850933014
      ],
      [
        "Complet",
        -13.13733533046393
      ],
      [
        "clos",
        -13.137856628016092
      ],
      [
        "lear",
        -13.138408696596516
      ],
      [
        "lucid",
        -13.141478812342669
      ],
      [
        "ficient",
        -13.143349008825059
      ],
      [
        "compa",
        -13.143774313373493
      ],
      [
        "Trigonometr",
        -13.145206504111693
      ],
      [
        "rough",
        -13.147887587688569
      ],
      [
        "entation",
        -13.148430740954131
      ],
      [
        "ushe",
        -13.148698052586932
      ],
      [
        "cumulat",
        -13.14884928236657
      ],
      [
        "ontinue",
        -13.148937875112097
      ],
      [
        "mechani",
        -13.14940011258887
      ],
      [
        "cohesi",
        -13.14940976350149
      ],
      [
        "instru",
        -13.14942075185563
      ],
      [
        "trivi",
        -13.149438982839257
      ],
      [
        "cumen",
        -13.14945163243452
      ],
      [
        "princip",
        -13.149457949010962
      ],
      [
        "Category",
        -13.149458493483412
      ],
      [
        "»",
        -13.14945849351699
      ],
      [
        "Respons",
        -13.149458652209491
      ],
      [
        "Priorit",
        -13.149458677014918
      ],
      [
        "situation",
        -13.149460161980219
      ],
      [
        "eviden",
        -13.149461495344447
      ],
      [
        "reveal",
        -13.149525874445402
      ],
      [
        "subtle",
        -13.149531623579016
      ],
      [
        "Lead",
        -13.149544880083761
      ],
      [
        "ambitious",
        -13.14960999397951
      ],
      [
        "prove",
        -13.149622597538208
      ],
      [
        "tract",
        -13.149624193156159
      ],
      [
        "stigate",
        -13.14966793559827
      ],
      [
        "distill",
        -13.149759361531183
      ],
      [
        "partic",
        -13.150274063970421
      ],
      [
        "compounded",
        -13.150405288698597
      ],
      [
        "ession",
        -13.15042792676072
      ],
      [
        "hybrid_solution_",
        -13.158349780444501
      ],
      [
        "ssue",
        -13.159723278587094
      ],
      [
        "bran",
        -13.162291336057029
      ],
      [
        "Sta",
        -13.162526698818587
      ],
      [
        "ycle",
        -13.164760794435036
      ],
      [
        "needs_more_in",
        -13.17089139899928
      ],
      [
        "llm_error_",
        -13.177873290301635
      ],
      [
        "variable",
        -13.18078573210028
      ],
      [
        "retic",
        -13.184852958191826
      ],
      [
        "Feedback_Loop_",
        -13.227727192437618
      ],
      [
        "LLM0",
        -13.230280377148498
      ],
      [
        "disassembl",
        -13.235994597817822
      ],
      [
        "justifi",
        -13.236967890551956
      ],
      [
        "SolverF",
        -13.246568330378576
      ],
      [
        "MathSolverP",
        -13.263997054145527
      ],
      [
        "elaborat",
        -13.28675550550879
      ],
      [
        "grad",
        -13.306161149446464
      ],
      [
        "formi",
        -13.319662716163204
      ],
      [
        "geometrical",
        -13.328637381020066
      ],
      [
        "choose",
        -13.365002649845326
      ],
      [
        "riv",
        -13.36627082675001
      ],
      [
        "mental",
        -13.368752368737248
      ],
      [
        "arent",
        -13.368978332419964
      ],
      [
        "struct",
        -13.37030675675773
      ],
      [
        "just",
        -13.372101416250342
      ],
      [
        "LLM_solution_",
        -13.383384694492621
      ],
      [
        "hybrid_math_",
        -13.420293203949226
      ],
      [
        "synergiz",
        -13.428123097977977
      ],
      [
        "Statistic",
        -13.433961923456495
      ],
      [
        "Integrat",
        -13.439093307283926
      ],
      [
        "ick",
        -13.44014149497674
      ],
      [
        "put",
        -13.441510121417739
      ],
      [
        "erve",
        -13.444762139665608
      ],
      [
        "perative",
        -13.449773930760271
      ],
      [
        "Simplif",
        -13.464323773846793
      ],
      [
        "ffective",
        -13.470597550972315
      ],
      [
        "xplicit",
        -13.471390597971228
      ],
      [
        "xecute",
        -13.471409751391834
      ],
      [
        "xtract",
        -13.471500527785796
      ],
      [
        "educ",
        -13.478653560389011
      ],
      [
        "tail",
        -13.48134083029943
      ],
      [
        "simul",
        -13.481651317042942
      ],
      [
        "lusive",
        -13.481706890969441
      ],
      [
        "suit",
        -13.482040740216366
      ],
      [
        "entral",
        -13.482360774228983
      ],
      [
        "connect",
        -13.48257070434244
      ],
      [
        "mplified",
        -13.482577817349151
      ],
      [
        "suffic",
        -13.482649457770698
      ],
      [
        "composition",
        -13.482732226023037
      ],
      [
        "transp",
        -13.482758659052559
      ],
      [
        "Coordinat",
        -13.482791826848022
      ],
      [
        "^",
        -13.482791826850322
      ],
      [
        "+",
        -13.482791826850322
      ],
      [
        "Articulat",
        -13.482791826949594
      ],
      [
        "ntermediary",
        -13.482792082175735
      ],
      [
        "topic",
        -13.482798201402506
      ],
      [
        "iction",
        -13.482857322245875
      ],
      [
        "transformation",
        -13.482876381351959
      ],
      [
        "Propose",
        -13.482998195892266
      ],
      [
        "proceed_to_",
        -13.483008444890501
      ],
      [
        "ctori",
        -13.483078657645986
      ],
      [
        "ComplexProblem",
        -13.48352776259462
      ],
      [
        "needs_more_clari",
        -13.483789886815241
      ],
      [
        "order",
        -13.484137888684277
      ],
      [
        "frame",
        -13.484200332431476
      ],
      [
        "ersto",
        -13.484219891064784
      ],
      [
        "effect",
        -13.484511124545188
      ],
      [
        "llm_math_",
        -13.484816999736017
      ],
      [
        "llm_basic_",
        -13.485965922531918
      ],
      [
        "increas",
        -13.486691575059357
      ],
      [
        "recommendation",
        -13.4868996092114
      ],
      [
        "adaptable",
        -13.488235336577008
      ],
      [
        "conte",
        -13.488845930508962
      ],
      [
        "par",
        -13.493852904532494
      ],
      [
        "strati",
        -13.49540296257558
      ],
      [
        "LLM_C",
        -13.495745527477839
      ],
      [
        "disc",
        -13.498619095413192
      ],
      [
        "Reassess",
        -13.500405195967362
      ],
      [
        "Assu",
        -13.501497925402292
      ],
      [
        "activ",
        -13.505544907424163
      ],
      [
        "ppend",
        -13.511261199954536
      ],
      [
        "LLM_Hybrid",
        -13.520082903040262
      ],
      [
        "chance",
        -13.528258261070773
      ],
      [
        "llm_complex_",
        -13.53005486136679
      ],
      [
        "proac",
        -13.530141709948927
      ],
      [
        "complex_solution",
        -13.534943543010085
      ],
      [
        "invo",
        -13.539958116202001
      ],
      [
        "vig",
        -13.547362920375788
      ],
      [
        "allback",
        -13.560351091267844
      ],
      [
        "plan",
        -13.566592072151511
      ],
      [
        "develope",
        -13.57073095284192
      ],
      [
        "advanced_hybrid_",
        -13.576063577131801
      ],
      [
        "llm_advanced_i",
        -13.579346984712604
      ],
      [
        "solution_partial",
        -13.589638860332961
      ],
      [
        "rmed",
        -13.592316006835496
      ],
      [
        "significan",
        -13.607023220628157
      ],
      [
        "modul",
        -13.620154545612262
      ],
      [
        "llm_solver",
        -13.642468748885099
      ],
      [
        "_solution_explor",
        -13.64552971795726
      ],
      [
        "ave",
        -13.647319655702162
      ],
      [
        "llm_solution_fin",
        -13.6564125426642
      ],
      [
        "solution_finaliz",
        -13.660818615005137
      ],
      [
        "lization",
        -13.669733505609264
      ],
      [
        "Resolve",
        -13.672789628260995
      ],
      [
        "hybrid_solver_",
        -13.687502370526541
      ],
      [
        "elucidat",
        -13.687947234474695
      ],
      [
        "revi",
        -13.69407774314097
      ],
      [
        "sub_problem_",
        -13.711774323510324
      ],
      [
        "uous",
        -13.758858718536324
      ],
      [
        "culminati",
        -13.775159902413858
      ],
      [
        "ize",
        -13.78325756902728
      ],
      [
        "ummary",
        -13.784576276303591
      ],
      [
        "Formula",
        -13.81760253150574
      ],
      [
        "terminati",
        -13.838629447444015
      ],
      [
        "centr",
        -13.839070979184408
      ],
      [
        "dication",
        -13.868112215926452
      ],
      [
        "deep_refinement",
        -13.887582758042893
      ],
      [
        "math_analysis",
        -13.905290501971534
      ],
      [
        "and_alternatives",
        -13.905927225647039
      ],
      [
        "combinat",
        -13.91434891791126
      ],
      [
        "Comp",
        -13.92571249080442
      ],
      [
        "llm_direct_sol",
        -13.930612779260727
      ],
      [
        "ymbolic",
        -13.94308116369983
      ],
      [
        "sufficien",
        -13.952475756128942
      ],
      [
        "analys",
        -13.954749347591127
      ],
      [
        "critic",
        -13.961576089042447
      ],
      [
        "Refin",
        -13.96654284751525
      ],
      [
        "type_algebra",
        -13.966646350472624
      ],
      [
        "hyper",
        -13.96732601719581
      ],
      [
        "Calculat",
        -13.968032989951627
      ],
      [
        "Analyz",
        -13.971600127447172
      ],
      [
        "Specialize",
        -13.97466807161404
      ],
      [
        "Dec",
        -13.97515006817772
      ],
      [
        "acilitate",
        -13.97599736598375
      ],
      [
        "ndependent",
        -13.977537927711678
      ],
      [
        "verifi",
        -13.977828637855568
      ],
      [
        "abilit",
        -13.980636722775486
      ],
      [
        "reduc",
        -13.9808810566141
      ],
      [
        "Strategy",
        -13.982050307547897
      ],
      [
        "hoose",
        -13.982315236777929
      ],
      [
        "longs",
        -13.982335776632985
      ],
      [
        "solut",
        -13.982408882623098
      ],
      [
        "straight",
        -13.982614501624102
      ],
      [
        "Graph",
        -13.982788509318658
      ],
      [
        "licit",
        -13.982790757394477
      ],
      [
        "assimilat",
        -13.982791827241297
      ],
      [
        "major_rethink",
        -13.982791828053571
      ],
      [
        "Require",
        -13.982791845056044
      ],
      [
        "sharpe",
        -13.982791867527183
      ],
      [
        "llm_comb_",
        -13.982791980230221
      ],
      [
        "intensify",
        -13.98279198276756
      ],
      [
        "respond",
        -13.9827924409479
      ],
      [
        "Signal",
        -13.982793127792434
      ],
      [
        "minute",
        -13.982794269014562
      ],
      [
        "tough",
        -13.9828035843235
      ],
      [
        "comparative",
        -13.98283761539756
      ],
      [
        "correct_but_",
        -13.982869554192956
      ],
      [
        "ranslat",
        -13.982873055459487
      ],
      [
        "crossbreed_",
        -13.9828744516171
      ],
      [
        "minor_adjustment",
        -13.982883011638874
      ],
      [
        "flaw",
        -13.982893466633064
      ],
      [
        "complement",
        -13.982897771613755
      ],
      [
        "tigat",
        -13.982915938816236
      ],
      [
        "ficial",
        -13.982942105634333
      ],
      [
        "cisive",
        -13.983085192916938
      ],
      [
        "exceed",
        -13.983224496900808
      ],
      [
        "version",
        -13.983290228856552
      ],
      [
        "uctive",
        -13.98332621565385
      ],
      [
        "advise",
        -13.983348815505225
      ],
      [
        "fitting",
        -13.983537825218386
      ],
      [
        "general_approach",
        -13.983929727264412
      ],
      [
        "llm_pre",
        -13.984029661827924
      ],
      [
        "new_approach",
        -13.98405070104539
      ],
      [
        "importan",
        -13.984220148281608
      ],
      [
        "tak",
        -13.984366101936246
      ],
      [
        "llm_focused_",
        -13.98480199407946
      ],
      [
        "advi",
        -13.985118517052632
      ],
      [
        "Fine",
        -13.985517336449208
      ],
      [
        "needs_deeper_",
        -13.985677249443057
      ],
      [
        "derivative",
        -13.986314150218465
      ],
      [
        "enhancement_and_",
        -13.987408748754316
      ],
      [
        "vious",
        -13.988167452244891
      ],
      [
        "capitaliz",
        -13.988683661983048
      ],
      [
        "igorous",
        -13.990169870204856
      ],
      [
        "compound_math_",
        -13.990787321815931
      ],
      [
        "usion",
        -13.991663713580058
      ],
      [
        "llm_integration",
        -13.991916838470864
      ],
      [
        "quick_solution",
        -13.992535873892844
      ],
      [
        "final_valid",
        -13.992956016228174
      ],
      [
        "Dra",
        -13.994308061301112
      ],
      [
        "minor_refinement",
        -13.995162624868133
      ],
      [
        "leav",
        -14.005073406630173
      ],
      [
        "acktrack",
        -14.007211621417389
      ],
      [
        "ncreas",
        -14.011504641083395
      ],
      [
        "recogni",
        -14.011567763295307
      ],
      [
        "Synthesi",
        -14.016839814936237
      ],
      [
        "ationality",
        -14.019536964719421
      ],
      [
        "atter",
        -14.023884717299163
      ],
      [
        "Off",
        -14.027291513677548
      ],
      [
        "llm_evaluation",
        -14.0391551343899
      ],
      [
        "deep_refinement_",
        -14.040048498500308
      ],
      [
        "akes",
        -14.05156151023145
      ],
      [
        "_pre_validat",
        -14.053259181465906
      ],
      [
        "analysis_and_",
        -14.054905527261706
      ],
      [
        "heuristics_",
        -14.064181370934932
      ],
      [
        "prog",
        -14.066503362673686
      ],
      [
        "llm_feedback",
        -14.067439494960523
      ],
      [
        "chan",
        -14.076326033322008
      ],
      [
        "solution_final",
        -14.076824940744327
      ],
      [
        "IN",
        -14.077355613848049
      ],
      [
        "argeted_analysis",
        -14.07845434257845
      ],
      [
        "llm_algebra",
        -14.099293438900474
      ],
      [
        "lm_intermediate_",
        -14.11298561748762
      ],
      [
        "SolutionRefiner",
        -14.11662964463468
      ],
      [
        "rrow",
        -14.124366558639618
      ],
      [
        "solution_enhance",
        -14.136270137008518
      ],
      [
        "direct_to_s",
        -14.145635599340444
      ],
      [
        "Ma",
        -14.161486479941823
      ],
      [
        "speculati",
        -14.168685602342512
      ],
      [
        "_trigonometric",
        -14.171524216826217
      ],
      [
        "repeated",
        -14.179831588208316
      ],
      [
        "wit",
        -14.191175470854677
      ],
      [
        "final_solution_",
        -14.195264180083043
      ],
      [
        "choose_",
        -14.217059784352218
      ],
      [
        "ic_solver",
        -14.217554611790954
      ],
      [
        "_solution_refine",
        -14.220854378515742
      ],
      [
        "integrated_math_",
        -14.225703020308591
      ],
      [
        "_review_and_",
        -14.258423446230344
      ],
      [
        "alization",
        -14.274561303763768
      ],
      [
        "overa",
        -14.275226637973665
      ],
      [
        "vis",
        -14.320695940076593
      ],
      [
        "geometry_solver_",
        -14.328732474969382
      ],
      [
        "ment_and_self_",
        -14.337756276826646
      ],
      [
        "_adjuste",
        -14.348655884554601
      ],
      [
        "GeometricSolver",
        -14.352376708365334
      ],
      [
        "grade",
        -14.414247970440945
      ],
      [
        "_mis",
        -14.493693931106574
      ],
      [
        "llm_refine",
        -14.527050346552105
      ],
      [
        "Cal",
        -14.53281029377881
      ],
      [
        "stics",
        -14.545797094007382
      ],
      [
        "compos",
        -14.562863192458746
      ],
      [
        "SubProblem",
        -14.563598373357799
      ],
      [
        "clusive",
        -14.614216328433704
      ],
      [
        "backup_",
        -14.64781499366433
      ],
      [
        "universal",
        -14.658353853716033
      ],
      [
        "algebra_solver_",
        -14.676457088178218
      ],
      [
        "Explor",
        -14.699133791751684
      ],
      [
        "spect",
        -14.714768823363674
      ],
      [
        "_detect",
        -14.719790344821039
      ],
      [
        "solver_refine",
        -14.720221135937877
      ],
      [
        "llm_second",
        -14.726421803808538
      ],
      [
        "asses",
        -14.727453466655499
      ],
      [
        "ntake",
        -14.750740392325632
      ],
      [
        "innovat",
        -14.761737988025786
      ],
      [
        "llm_solver_",
        -14.76905639113947
      ],
      [
        "ormal",
        -14.78978115755549
      ],
      [
        "Represent",
        -14.80477364425738
      ],
      [
        "verify_solution",
        -14.816922374618619
      ],
      [
        "further_analysis",
        -14.825625053482568
      ],
      [
        "delineat",
        -14.827064765039754
      ],
      [
        "exclu",
        -14.828307319705889
      ],
      [
        "olution",
        -14.829428501719736
      ],
      [
        "er_advanced",
        -14.85262665459961
      ],
      [
        "advanced_math",
        -14.852983459687264
      ],
      [
        "converg",
        -14.86007973690297
      ],
      [
        "suc",
        -14.86062113343163
      ],
      [
        "creativity_",
        -14.871753073075087
      ],
      [
        "navigati",
        -14.882612856501822
      ],
      [
        "olution_synthesi",
        -14.883393530094825
      ],
      [
        "recycl",
        -14.892147142539544
      ],
      [
        "compar",
        -14.911563996311559
      ],
      [
        "track",
        -14.926222916495671
      ],
      [
        "hybrid_advance",
        -14.932774327112199
      ],
      [
        "statistic",
        -14.936023064737444
      ],
      [
        "pecific",
        -14.939821640984743
      ],
      [
        "compil",
        -14.942248163171922
      ],
      [
        "operat",
        -14.943283903715987
      ],
      [
        "uccessful",
        -14.9443337121169
      ],
      [
        "eamless",
        -14.945231663676175
      ],
      [
        "compound",
        -14.957285717166874
      ],
      [
        "figur",
        -14.962973989087017
      ],
      [
        "Iterat",
        -14.963169875939942
      ],
      [
        "impl",
        -14.963546550832113
      ],
      [
        "equent",
        -14.963839693992357
      ],
      [
        "xception",
        -14.96457115276912
      ],
      [
        "Optimiz",
        -14.965726205337505
      ],
      [
        "nswer",
        -14.96708728032803
      ],
      [
        "ccurate",
        -14.967215612270177
      ],
      [
        "lgorithm",
        -14.967315993362238
      ],
      [
        "umeric",
        -14.96772888408122
      ],
      [
        "confirmatio",
        -14.96880926886079
      ],
      [
        "bstract",
        -14.968994625892575
      ],
      [
        "laborate",
        -14.971909878477927
      ],
      [
        "Incorporat",
        -14.971968490748766
      ],
      [
        "xhaustive",
        -14.972006510756412
      ],
      [
        "undertak",
        -14.972040376323086
      ],
      [
        "procedur",
        -14.972099709208717
      ],
      [
        "ncourag",
        -14.972302803977165
      ],
      [
        "Prepar",
        -14.97231597752735
      ],
      [
        "fram",
        -14.975482918923035
      ],
      [
        "strate",
        -14.976369438050638
      ],
      [
        "nclude",
        -14.977538938877096
      ],
      [
        "ndividual",
        -14.977747856139665
      ],
      [
        "ndicate",
        -14.978222372647545
      ],
      [
        "ridge",
        -14.978596187639887
      ],
      [
        "consistenc",
        -14.978741533919155
      ],
      [
        "rigonometric",
        -14.979282681058717
      ],
      [
        "roduce",
        -14.97943857612884
      ],
      [
        "ficienc",
        -14.98131444327334
      ],
      [
        "pecialization",
        -14.982067997149805
      ],
      [
        "identi",
        -14.982258142626778
      ],
      [
        "ommunicate",
        -14.9822824266846
      ],
      [
        "Inter",
        -14.982283046050899
      ],
      [
        "Revisi",
        -14.982410724985868
      ],
      [
        "entific",
        -14.982411328565936
      ],
      [
        "transform",
        -14.982443454218561
      ],
      [
        "omponent",
        -14.982494854970646
      ],
      [
        "immedia",
        -14.98250092014358
      ],
      [
        "euristic",
        -14.982548739517043
      ],
      [
        "Under",
        -14.98265750686802
      ],
      [
        "quest",
        -14.98268099513154
      ],
      [
        "source",
        -14.982720958175376
      ],
      [
        "hybrid_adv",
        -14.982766306220324
      ],
      [
        "Special",
        -14.982784245660735
      ],
      [
        "Probabili",
        -14.98278491274157
      ],
      [
        "Colla",
        -14.982789952908611
      ],
      [
        "Q",
        -14.9827917646633
      ],
      [
        "elimina",
        -14.982791790766843
      ],
      [
        "л",
        -14.982791826850322
      ],
      [
        "т",
        -14.982791826850322
      ],
      [
        "м",
        -14.982791826850322
      ],
      [
        "а",
        -14.982791826850322
      ],
      [
        "п",
        -14.982791826850322
      ],
      [
        "и",
        -14.982791826850322
      ],
      [
        "о",
        -14.982791826850322
      ],
      [
        "initial_eval",
        -14.982794407762645
      ],
      [
        "timate",
        -14.982796437614349
      ],
      [
        "llm_adv",
        -14.982799966785485
      ],
      [
        "uestion",
        -14.98288265585723
      ],
      [
        "instruct",
        -14.982952646210332
      ],
      [
        "StatisticalProb",
        -14.983000439897054
      ],
      [
        "llm_init",
        -14.98311095033277
      ],
      [
        "SolutionOptimiz",
        -14.983249625684444
      ],
      [
        "manipulat",
        -14.983633568181604
      ],
      [
        "ogic",
        -14.984225397431786
      ],
      [
        "crossbre",
        -14.984255267044814
      ],
      [
        "matic",
        -14.984483306529905
      ],
      [
        "colla",
        -14.984766424395467
      ],
      [
        "liber",
        -14.98523991800737
      ],
      [
        "Verification_L",
        -14.985242283282028
      ],
      [
        "perti",
        -14.985982715464003
      ],
      [
        "onsider",
        -14.986100958455625
      ],
      [
        "simulat",
        -14.986138697875209
      ],
      [
        "exception",
        -14.986363397882872
      ],
      [
        "Compos",
        -14.98830105861694
      ],
      [
        "oncept_",
        -14.988450114671954
      ],
      [
        "ari",
        -14.98849662358467
      ],
      [
        "ack",
        -14.989890743048068
      ],
      [
        "ayer",
        -14.992326633384458
      ],
      [
        "expan",
        -14.995603842775303
      ],
      [
        "fficient",
        -14.995875264482073
      ],
      [
        "conce",
        -14.99672475275644
      ],
      [
        "underl",
        -14.998575713105192
      ],
      [
        "recise",
        -14.998824382439352
      ],
      [
        "erive",
        -15.006988245485232
      ],
      [
        "requires_re",
        -15.007069164958553
      ],
      [
        "figure",
        -15.007235982564975
      ],
      [
        "d_to_",
        -15.009699524964997
      ],
      [
        "d_comprehensive_",
        -15.012389924376857
      ],
      [
        "Complexity_A",
        -15.01581215508108
      ],
      [
        "llm_alternative",
        -15.01833667783527
      ],
      [
        "found_but_",
        -15.020469290220575
      ],
      [
        "llm_hyp",
        -15.023139798461525
      ],
      [
        "ceeding",
        -15.024587736884762
      ],
      [
        "uence",
        -15.028505783988114
      ],
      [
        "_compar",
        -15.032840883726386
      ],
      [
        "ark",
        -15.033150568474484
      ],
      [
        "Emb",
        -15.037867675983897
      ],
      [
        "llm_iterative_re",
        -15.039365524155142
      ],
      [
        "reconsider",
        -15.040421682563277
      ],
      [
        "_found_but_",
        -15.045976360396493
      ],
      [
        "type_identifi",
        -15.04865284127548
      ],
      [
        "LLM_math_refine",
        -15.048813601118875
      ],
      [
        "SolutionFin",
        -15.049555290967552
      ],
      [
        "infeasib",
        -15.050916361250627
      ],
      [
        "nsur",
        -15.061453185294159
      ],
      [
        "LLM_synthesi",
        -15.06227294590374
      ],
      [
        "rerout",
        -15.066357298526441
      ],
      [
        "ipulate",
        -15.073003658293086
      ],
      [
        "centra",
        -15.074900750994537
      ],
      [
        "needs_concept",
        -15.076528038913535
      ],
      [
        "nventi",
        -15.087882846319765
      ],
      [
        "_solution_fin",
        -15.100074150855434
      ],
      [
        "choos",
        -15.135150046813623
      ],
      [
        "initial_problem_",
        -15.15879433017389
      ],
      [
        "llm_geometr",
        -15.189826840663505
      ],
      [
        "ivers",
        -15.204484629393106
      ],
      [
        "easi",
        -15.23377030727948
      ],
      [
        "reanalyz",
        -15.306536430629658
      ],
      [
        "exper",
        -15.319382317236975
      ],
      [
        "deep_solv",
        -15.343604208977276
      ],
      [
        "olution_generat",
        -15.358281251500589
      ],
      [
        "needs_deep",
        -15.368523434916435
      ],
      [
        "discerni",
        -15.376766053256667
      ],
      [
        "solution_deep_",
        -15.397083848952883
      ],
      [
        "alize",
        -15.441279018102271
      ],
      [
        "cross_verif",
        -15.51314889822829
      ],
      [
        "_problem_solv",
        -15.529477096826561
      ],
      [
        "char",
        -15.531028319290865
      ],
      [
        "onstruct",
        -15.533470588842818
      ],
      [
        "Pro",
        -15.561469600450144
      ],
      [
        "simpl",
        -15.561819497671003
      ],
      [
        "reinterpret",
        -15.711519184117568
      ],
      [
        "solution_path",
        -15.722798289679094
      ],
      [
        "Summar",
        -15.746604800576856
      ],
      [
        "nclusive",
        -15.757719784046033
      ],
      [
        "correct_for",
        -15.765128377272353
      ],
      [
        "LLM_problem_",
        -15.860401031596261
      ],
      [
        "reprocess",
        -15.89490522294188
      ],
      [
        "cor",
        -15.934606744072797
      ],
      [
        "direct_solve",
        -15.94397199560755
      ],
      [
        "equires_further_",
        -16.018452745606687
      ],
      [
        "specialized_solv",
        -16.08391185838881
      ],
      [
        "restructure",
        -16.086313926783454
      ],
      [
        "acc",
        -16.247103840016717
      ],
      [
        "_issue_",
        -16.263808259361575
      ],
      [
        "q",
        -16.28056449362367
      ],
      [
        "j",
        -16.28066449362367
      ],
      [
        "Y",
        -16.28076449362367
      ],
      [
        "ferenc",
        -16.28076449362367
      ]
    ],
    "byte_fallback": false
  }
}